{
 "version": "1.0",
 "truncation": null,
 "padding": null,
 "added_tokens": [
  {
   "id": 0,
   "content": "[PAD]",
   "single_word": false,
   "lstrip": false,
   "rstrip": false,
   "normalized": false,
   "special": true
  },
  {
   "id": 100,
   "content": "[UNK]",
   "single_word": false,
   "lstrip": false,
   "rstrip": false,
   "normalized": false,
   "special": true
  },
  {
   "id": 101,
   "content": "[CLS]",
   "single_word": false,
   "lstrip": false,
   "rstrip": false,
   "normalized": false,
   "special": true
  },
  {
   "id": 102,
   "content": "[SEP]",
   "single_word": false,
   "lstrip": false,
   "rstrip": false,
   "normalized": false,
   "special": true
  },
  {
   "id": 103,
   "content": "[MASK]",
   "single_word": false,
   "lstrip": false,
   "rstrip": false,
   "normalized": false,
   "special": true
  }
 ],
 "normalizer": {
  "type": "BertNormalizer",
  "clean_text": true,
  "handle_chinese_chars": true,
  "strip_accents": null,
  "lowercase": true
 },
 "pre_tokenizer": {
  "type": "BertPreTokenizer"
 },
 "post_processor": {
  "type": "TemplateProcessing",
  "single": [
   {
    "SpecialToken": {
     "id": "[CLS]",
     "type_id": 0
    }
   },
   {
    "Sequence": {
     "id": "A",
     "type_id": 0
    }
   },
   {
    "SpecialToken": {
     "id": "[SEP]",
     "type_id": 0
    }
   }
  ],
  "pair": [
   {
    "SpecialToken": {
     "id": "[CLS]",
     "type_id": 0
    }
   },
   {
    "Sequence": {
     "id": "A",
     "type_id": 0
    }
   },
   {
    "SpecialToken": {
     "id": "[SEP]",
     "type_id": 0
    }
   },
   {
    "Sequence": {
     "id": "B",
     "type_id": 1
    }
   },
   {
    "SpecialToken": {
     "id": "[SEP]",
     "type_id": 1
    }
   }
  ],
  "special_tokens": {
   "[CLS]": {
    "id": "[CLS]",
    "ids": [
     101
    ],
    "tokens": [
     "[CLS]"
    ]
   },
   "[SEP]": {
    "id": "[SEP]",
    "ids": [
     102
    ],
    "tokens": [
     "[SEP]"
    ]
   }
  }
 },
 "decoder": {
  "type": "WordPiece",
  "prefix": "##",
  "cleanup": true
 },
 "model": {
  "type": "WordPiece",
  "unk_token": "[UNK]",
  "continuing_subword_prefix": "##",
  "max_input_chars_per_word": 100,
  "vocab": {
   "[PAD]": 0,
   "[unused1]": 1,
   "[unused2]": 2,
   "[unused3]": 3,
   "[unused4]": 4,
   "[unused5]": 5,
   "[unused6]": 6,
   "[unused7]": 7,
   "[unused8]": 8,
   "[unused9]": 9,
   "[unused10]": 10,
   "[unused11]": 11,
   "[unused12]": 12,
   "[unused13]": 13,
   "[unused14]": 14,
   "[unused15]": 15,
   "[unused16]": 16,
   "[unused17]": 17,
   "[unused18]": 18,
   "[unused19]": 19,
   "[unused20]": 20,
   "[unused21]": 21,
   "[unused22]": 22,
   "[unused23]": 23,
   "[unused24]": 24,
   "[unused25]": 25,
   "[unused26]": 26,
   "[unused27]": 27,
   "[unused28]": 28,
   "[unused29]": 29,
   "[unused30]": 30,
   "[unused31]": 31,
   "[unused32]": 32,
   "[unused33]": 33,
   "[unused34]": 34,
   "[unused35]": 35,
   "[unused36]": 36,
   "[unused37]": 37,
   "[unused38]": 38,
   "[unused39]": 39,
   "[unused40]": 40,
   "[unused41]": 41,
   "[unused42]": 42,
   "[unused43]": 43,
   "[unused44]": 44,
   "[unused45]": 45,
   "[unused46]": 46,
   "[unused47]": 47,
   "[unused48]": 48,
   "[unused49]": 49,
   "[unused50]": 50,
   "[unused51]": 51,
   "[unused52]": 52,
   "[unused53]": 53,
   "[unused54]": 54,
   "[unused55]": 55,
   "[unused56]": 56,
   "[unused57]": 57,
   "[unused58]": 58,
   "[unused59]": 59,
   "[unused60]": 60,
   "[unused61]": 61,
   "[unused62]": 62,
   "[unused63]": 63,
   "[unused64]": 64,
   "[unused65]": 65,
   "[unused66]": 66,
   "[unused67]": 67,
   "[unused68]": 68,
   "[unused69]": 69,
   "[unused70]": 70,
   "[unused71]": 71,
   "[unused72]": 72,
   "[unused73]": 73,
   "[unused74]": 74,
   "[unused75]": 75,
   "[unused76]": 76,
   "[unused77]": 77,
   "[unused78]": 78,
   "[unused79]": 79,
   "[unused80]": 80,
   "[unused81]": 81,
   "[unused82]": 82,
   "[unused83]": 83,
   "[unused84]": 84,
   "[unused85]": 85,
   "[unused86]": 86,
   "[unused87]": 87,
   "[unused88]": 88,
   "[unused89]": 89,
   "[unused90]": 90,
   "[unused91]": 91,
   "[unused92]": 92,
   "[unused93]": 93,
   "[unused94]": 94,
   "[unused95]": 95,
   "[unused96]": 96,
   "[unused97]": 97,
   "[unused98]": 98,
   "[unused99]": 99,
   "[UNK]": 100,
   "[CLS]": 101,
   "[SEP]": 102,
   "[MASK]": 103,
   "<S>": 104,
   "<T>": 105,
   "!": 106,
   "\"": 107,
   "#": 108,
   "$": 109,
   "%": 110,
   "&": 111,
   "'": 112,
   "(": 113,
   ")": 114,
   "*": 115,
   "+": 116,
   ",": 117,
   "-": 118,
   ".": 119,
   "/": 120,
   "0": 121,
   "1": 122,
   "2": 123,
   "3": 124,
   "4": 125,
   "5": 126,
   "6": 127,
   "7": 128,
   "8": 129,
   "9": 130,
   ":": 131,
   ";": 132,
   "<": 133,
   "=": 134,
   ">": 135,
   "?": 136,
   "@": 137,
   "[": 138,
   "\\": 139,
   "]": 140,
   "^": 141,
   "_": 142,
   "a": 143,
   "b": 144,
   "c": 145,
   "d": 146,
   "e": 147,
   "f": 148,
   "g": 149,
   "h": 150,
   "i": 151,
   "j": 152,
   "k": 153,
   "l": 154,
   "m": 155,
   "n": 156,
   "o": 157,
   "p": 158,
   "q": 159,
   "r": 160,
   "s": 161,
   "t": 162,
   "u": 163,
   "v": 164,
   "w": 165,
   "x": 166,
   "y": 167,
   "z": 168,
   "{": 169,
   "|": 170,
   "}": 171,
   "~": 172,
   "£": 173,
   "¤": 174,
   "¥": 175,
   "§": 176,
   "©": 177,
   "«": 178,
   "®": 179,
   "°": 180,
   "±": 181,
   "²": 182,
   "³": 183,
   "µ": 184,
   "·": 185,
   "¹": 186,
   "º": 187,
   "»": 188,
   "¼": 189,
   "×": 190,
   "ß": 191,
   "æ": 192,
   "÷": 193,
   "ø": 194,
   "đ": 195,
   "ŋ": 196,
   "ɔ": 197,
   "ə": 198,
   "ɡ": 199,
   "ʰ": 200,
   "ˇ": 201,
   "ˈ": 202,
   "ˊ": 203,
   "ˋ": 204,
   "ˍ": 205,
   "ː": 206,
   "˙": 207,
   "˚": 208,
   "ˢ": 209,
   "α": 210,
   "β": 211,
   "γ": 212,
   "δ": 213,
   "ε": 214,
   "η": 215,
   "θ": 216,
   "ι": 217,
   "κ": 218,
   "λ": 219,
   "μ": 220,
   "ν": 221,
   "ο": 222,
   "π": 223,
   "ρ": 224,
   "ς": 225,
   "σ": 226,
   "τ": 227,
   "υ": 228,
   "φ": 229,
   "χ": 230,
   "ψ": 231,
   "ω": 232,
   "а": 233,
   "б": 234,
   "в": 235,
   "г": 236,
   "д": 237,
   "е": 238,
   "ж": 239,
   "з": 240,
   "и": 241,
   "к": 242,
   "л": 243,
   "м": 244,
   "н": 245,
   "о": 246,
   "п": 247,
   "р": 248,
   "с": 249,
   "т": 250,
   "у": 251,
   "ф": 252,
   "х": 253,
   "ц": 254,
   "ч": 255,
   "ш": 256,
   "ы": 257,
   "ь": 258,
   "я": 259,
   "і": 260,
   "ا": 261,
   "ب": 262,
   "ة": 263,
   "ت": 264,
   "د": 265,
   "ر": 266,
   "س": 267,
   "ع": 268,
   "ل": 269,
   "م": 270,
   "ن": 271,
   "ه": 272,
   "و": 273,
   "ي": 274,
   "۩": 275,
   "ก": 276,
   "ง": 277,
   "น": 278,
   "ม": 279,
   "ย": 280,
   "ร": 281,
   "อ": 282,
   "า": 283,
   "เ": 284,
   "๑": 285,
   "་": 286,
   "ღ": 287,
   "ᄀ": 288,
   "ᄁ": 289,
   "ᄂ": 290,
   "ᄃ": 291,
   "ᄅ": 292,
   "ᄆ": 293,
   "ᄇ": 294,
   "ᄈ": 295,
   "ᄉ": 296,
   "ᄋ": 297,
   "ᄌ": 298,
   "ᄎ": 299,
   "ᄏ": 300,
   "ᄐ": 301,
   "ᄑ": 302,
   "ᄒ": 303,
   "ᅡ": 304,
   "ᅢ": 305,
   "ᅣ": 306,
   "ᅥ": 307,
   "ᅦ": 308,
   "ᅧ": 309,
   "ᅨ": 310,
   "ᅩ": 311,
   "ᅪ": 312,
   "ᅬ": 313,
   "ᅭ": 314,
   "ᅮ": 315,
   "ᅯ": 316,
   "ᅲ": 317,
   "ᅳ": 318,
   "ᅴ": 319,
   "ᅵ": 320,
   "ᆨ": 321,
   "ᆫ": 322,
   "ᆯ": 323,
   "ᆷ": 324,
   "ᆸ": 325,
   "ᆺ": 326,
   "ᆻ": 327,
   "ᆼ": 328,
   "ᗜ": 329,
   "ᵃ": 330,
   "ᵉ": 331,
   "ᵍ": 332,
   "ᵏ": 333,
   "ᵐ": 334,
   "ᵒ": 335,
   "ᵘ": 336,
   "‖": 337,
   "„": 338,
   "†": 339,
   "•": 340,
   "‥": 341,
   "‧": 342,
   " ": 343,
   "‰": 344,
   "′": 345,
   "″": 346,
   "‹": 347,
   "›": 348,
   "※": 349,
   "‿": 350,
   "⁄": 351,
   "ⁱ": 352,
   "⁺": 353,
   "ⁿ": 354,
   "₁": 355,
   "₂": 356,
   "₃": 357,
   "₄": 358,
   "€": 359,
   "℃": 360,
   "№": 361,
   "™": 362,
   "ⅰ": 363,
   "ⅱ": 364,
   "ⅲ": 365,
   "ⅳ": 366,
   "ⅴ": 367,
   "←": 368,
   "↑": 369,
   "→": 370,
   "↓": 371,
   "↔": 372,
   "↗": 373,
   "↘": 374,
   "⇒": 375,
   "∀": 376,
   "−": 377,
   "∕": 378,
   "∙": 379,
   "√": 380,
   "∞": 381,
   "∟": 382,
   "∠": 383,
   "∣": 384,
   "∥": 385,
   "∩": 386,
   "∮": 387,
   "∶": 388,
   "∼": 389,
   "∽": 390,
   "≈": 391,
   "≒": 392,
   "≡": 393,
   "≤": 394,
   "≥": 395,
   "≦": 396,
   "≧": 397,
   "≪": 398,
   "≫": 399,
   "⊙": 400,
   "⋅": 401,
   "⋈": 402,
   "⋯": 403,
   "⌒": 404,
   "①": 405,
   "②": 406,
   "③": 407,
   "④": 408,
   "⑤": 409,
   "⑥": 410,
   "⑦": 411,
   "⑧": 412,
   "⑨": 413,
   "⑩": 414,
   "⑴": 415,
   "⑵": 416,
   "⑶": 417,
   "⑷": 418,
   "⑸": 419,
   "⒈": 420,
   "⒉": 421,
   "⒊": 422,
   "⒋": 423,
   "ⓒ": 424,
   "ⓔ": 425,
   "ⓘ": 426,
   "─": 427,
   "━": 428,
   "│": 429,
   "┃": 430,
   "┅": 431,
   "┆": 432,
   "┊": 433,
   "┌": 434,
   "└": 435,
   "├": 436,
   "┣": 437,
   "═": 438,
   "║": 439,
   "╚": 440,
   "╞": 441,
   "╠": 442,
   "╭": 443,
   "╮": 444,
   "╯": 445,
   "╰": 446,
   "╱": 447,
   "╳": 448,
   "▂": 449,
   "▃": 450,
   "▅": 451,
   "▇": 452,
   "█": 453,
   "▉": 454,
   "▋": 455,
   "▌": 456,
   "▍": 457,
   "▎": 458,
   "■": 459,
   "□": 460,
   "▪": 461,
   "▫": 462,
   "▬": 463,
   "▲": 464,
   "△": 465,
   "▶": 466,
   "►": 467,
   "▼": 468,
   "▽": 469,
   "◆": 470,
   "◇": 471,
   "○": 472,
   "◎": 473,
   "●": 474,
   "◕": 475,
   "◠": 476,
   "◢": 477,
   "◤": 478,
   "☀": 479,
   "★": 480,
   "☆": 481,
   "☕": 482,
   "☞": 483,
   "☺": 484,
   "☼": 485,
   "♀": 486,
   "♂": 487,
   "♠": 488,
   "♡": 489,
   "♣": 490,
   "♥": 491,
   "♦": 492,
   "♪": 493,
   "♫": 494,
   "♬": 495,
   "✈": 496,
   "✔": 497,
   "✕": 498,
   "✖": 499,
   "✦": 500,
   "✨": 501,
   "✪": 502,
   "✰": 503,
   "✿": 504,
   "❀": 505,
   "❤": 506,
   "➜": 507,
   "➤": 508,
   "⦿": 509,
   "、": 510,
   "。": 511,
   "〃": 512,
   "々": 513,
   "〇": 514,
   "〈": 515,
   "〉": 516,
   "《": 517,
   "》": 518,
   "「": 519,
   "」": 520,
   "『": 521,
   "』": 522,
   "【": 523,
   "】": 524,
   "〓": 525,
   "〔": 526,
   "〕": 527,
   "〖": 528,
   "〗": 529,
   "〜": 530,
   "〝": 531,
   "〞": 532,
   "ぁ": 533,
   "あ": 534,
   "ぃ": 535,
   "い": 536,
   "う": 537,
   "ぇ": 538,
   "え": 539,
   "お": 540,
   "か": 541,
   "き": 542,
   "く": 543,
   "け": 544,
   "こ": 545,
   "さ": 546,
   "し": 547,
   "す": 548,
   "せ": 549,
   "そ": 550,
   "た": 551,
   "ち": 552,
   "っ": 553,
   "つ": 554,
   "て": 555,
   "と": 556,
   "な": 557,
   "に": 558,
   "ぬ": 559,
   "ね": 560,
   "の": 561,
   "は": 562,
   "ひ": 563,
   "ふ": 564,
   "へ": 565,
   "ほ": 566,
   "ま": 567,
   "み": 568,
   "む": 569,
   "め": 570,
   "も": 571,
   "ゃ": 572,
   "や": 573,
   "ゅ": 574,
   "ゆ": 575,
   "ょ": 576,
   "よ": 577,
   "ら": 578,
   "り": 579,
   "る": 580,
   "れ": 581,
   "ろ": 582,
   "わ": 583,
   "を": 584,
   "ん": 585,
   "゜": 586,
   "ゝ": 587,
   "ァ": 588,
   "ア": 589,
   "ィ": 590,
   "イ": 591,
   "ゥ": 592,
   "ウ": 593,
   "ェ": 594,
   "エ": 595,
   "ォ": 596,
   "オ": 597,
   "カ": 598,
   "キ": 599,
   "ク": 600,
   "ケ": 601,
   "コ": 602,
   "サ": 603,
   "シ": 604,
   "ス": 605,
   "セ": 606,
   "ソ": 607,
   "タ": 608,
   "チ": 609,
   "ッ": 610,
   "ツ": 611,
   "テ": 612,
   "ト": 613,
   "ナ": 614,
   "ニ": 615,
   "ヌ": 616,
   "ネ": 617,
   "ノ": 618,
   "ハ": 619,
   "ヒ": 620,
   "フ": 621,
   "ヘ": 622,
   "ホ": 623,
   "マ": 624,
   "ミ": 625,
   "ム": 626,
   "メ": 627,
   "モ": 628,
   "ャ": 629,
   "ヤ": 630,
   "ュ": 631,
   "ユ": 632,
   "ョ": 633,
   "ヨ": 634,
   "ラ": 635,
   "リ": 636,
   "ル": 637,
   "レ": 638,
   "ロ": 639,
   "ワ": 640,
   "ヲ": 641,
   "ン": 642,
   "ヶ": 643,
   "・": 644,
   "ー": 645,
   "ヽ": 646,
   "ㄅ": 647,
   "ㄆ": 648,
   "ㄇ": 649,
   "ㄉ": 650,
   "ㄋ": 651,
   "ㄌ": 652,
   "ㄍ": 653,
   "ㄎ": 654,
   "ㄏ": 655,
   "ㄒ": 656,
   "ㄚ": 657,
   "ㄛ": 658,
   "ㄞ": 659,
   "ㄟ": 660,
   "ㄢ": 661,
   "ㄤ": 662,
   "ㄥ": 663,
   "ㄧ": 664,
   "ㄨ": 665,
   "ㆍ": 666,
   "㈦": 667,
   "㊣": 668,
   "㎡": 669,
   "㗎": 670,
   "一": 671,
   "丁": 672,
   "七": 673,
   "万": 674,
   "丈": 675,
   "三": 676,
   "上": 677,
   "下": 678,
   "不": 679,
   "与": 680,
   "丐": 681,
   "丑": 682,
   "专": 683,
   "且": 684,
   "丕": 685,
   "世": 686,
   "丘": 687,
   "丙": 688,
   "业": 689,
   "丛": 690,
   "东": 691,
   "丝": 692,
   "丞": 693,
   "丟": 694,
   "両": 695,
   "丢": 696,
   "两": 697,
   "严": 698,
   "並": 699,
   "丧": 700,
   "丨": 701,
   "个": 702,
   "丫": 703,
   "中": 704,
   "丰": 705,
   "串": 706,
   "临": 707,
   "丶": 708,
   "丸": 709,
   "丹": 710,
   "为": 711,
   "主": 712,
   "丼": 713,
   "丽": 714,
   "举": 715,
   "丿": 716,
   "乂": 717,
   "乃": 718,
   "久": 719,
   "么": 720,
   "义": 721,
   "之": 722,
   "乌": 723,
   "乍": 724,
   "乎": 725,
   "乏": 726,
   "乐": 727,
   "乒": 728,
   "乓": 729,
   "乔": 730,
   "乖": 731,
   "乗": 732,
   "乘": 733,
   "乙": 734,
   "乜": 735,
   "九": 736,
   "乞": 737,
   "也": 738,
   "习": 739,
   "乡": 740,
   "书": 741,
   "乩": 742,
   "买": 743,
   "乱": 744,
   "乳": 745,
   "乾": 746,
   "亀": 747,
   "亂": 748,
   "了": 749,
   "予": 750,
   "争": 751,
   "事": 752,
   "二": 753,
   "于": 754,
   "亏": 755,
   "云": 756,
   "互": 757,
   "五": 758,
   "井": 759,
   "亘": 760,
   "亙": 761,
   "亚": 762,
   "些": 763,
   "亜": 764,
   "亞": 765,
   "亟": 766,
   "亡": 767,
   "亢": 768,
   "交": 769,
   "亥": 770,
   "亦": 771,
   "产": 772,
   "亨": 773,
   "亩": 774,
   "享": 775,
   "京": 776,
   "亭": 777,
   "亮": 778,
   "亲": 779,
   "亳": 780,
   "亵": 781,
   "人": 782,
   "亿": 783,
   "什": 784,
   "仁": 785,
   "仃": 786,
   "仄": 787,
   "仅": 788,
   "仆": 789,
   "仇": 790,
   "今": 791,
   "介": 792,
   "仍": 793,
   "从": 794,
   "仏": 795,
   "仑": 796,
   "仓": 797,
   "仔": 798,
   "仕": 799,
   "他": 800,
   "仗": 801,
   "付": 802,
   "仙": 803,
   "仝": 804,
   "仞": 805,
   "仟": 806,
   "代": 807,
   "令": 808,
   "以": 809,
   "仨": 810,
   "仪": 811,
   "们": 812,
   "仮": 813,
   "仰": 814,
   "仲": 815,
   "件": 816,
   "价": 817,
   "任": 818,
   "份": 819,
   "仿": 820,
   "企": 821,
   "伉": 822,
   "伊": 823,
   "伍": 824,
   "伎": 825,
   "伏": 826,
   "伐": 827,
   "休": 828,
   "伕": 829,
   "众": 830,
   "优": 831,
   "伙": 832,
   "会": 833,
   "伝": 834,
   "伞": 835,
   "伟": 836,
   "传": 837,
   "伢": 838,
   "伤": 839,
   "伦": 840,
   "伪": 841,
   "伫": 842,
   "伯": 843,
   "估": 844,
   "伴": 845,
   "伶": 846,
   "伸": 847,
   "伺": 848,
   "似": 849,
   "伽": 850,
   "佃": 851,
   "但": 852,
   "佇": 853,
   "佈": 854,
   "位": 855,
   "低": 856,
   "住": 857,
   "佐": 858,
   "佑": 859,
   "体": 860,
   "佔": 861,
   "何": 862,
   "佗": 863,
   "佘": 864,
   "余": 865,
   "佚": 866,
   "佛": 867,
   "作": 868,
   "佝": 869,
   "佞": 870,
   "佟": 871,
   "你": 872,
   "佢": 873,
   "佣": 874,
   "佤": 875,
   "佥": 876,
   "佩": 877,
   "佬": 878,
   "佯": 879,
   "佰": 880,
   "佳": 881,
   "併": 882,
   "佶": 883,
   "佻": 884,
   "佼": 885,
   "使": 886,
   "侃": 887,
   "侄": 888,
   "來": 889,
   "侈": 890,
   "例": 891,
   "侍": 892,
   "侏": 893,
   "侑": 894,
   "侖": 895,
   "侗": 896,
   "供": 897,
   "依": 898,
   "侠": 899,
   "価": 900,
   "侣": 901,
   "侥": 902,
   "侦": 903,
   "侧": 904,
   "侨": 905,
   "侬": 906,
   "侮": 907,
   "侯": 908,
   "侵": 909,
   "侶": 910,
   "侷": 911,
   "便": 912,
   "係": 913,
   "促": 914,
   "俄": 915,
   "俊": 916,
   "俎": 917,
   "俏": 918,
   "俐": 919,
   "俑": 920,
   "俗": 921,
   "俘": 922,
   "俚": 923,
   "保": 924,
   "俞": 925,
   "俟": 926,
   "俠": 927,
   "信": 928,
   "俨": 929,
   "俩": 930,
   "俪": 931,
   "俬": 932,
   "俭": 933,
   "修": 934,
   "俯": 935,
   "俱": 936,
   "俳": 937,
   "俸": 938,
   "俺": 939,
   "俾": 940,
   "倆": 941,
   "倉": 942,
   "個": 943,
   "倌": 944,
   "倍": 945,
   "倏": 946,
   "們": 947,
   "倒": 948,
   "倔": 949,
   "倖": 950,
   "倘": 951,
   "候": 952,
   "倚": 953,
   "倜": 954,
   "借": 955,
   "倡": 956,
   "値": 957,
   "倦": 958,
   "倩": 959,
   "倪": 960,
   "倫": 961,
   "倬": 962,
   "倭": 963,
   "倶": 964,
   "债": 965,
   "值": 966,
   "倾": 967,
   "偃": 968,
   "假": 969,
   "偈": 970,
   "偉": 971,
   "偌": 972,
   "偎": 973,
   "偏": 974,
   "偕": 975,
   "做": 976,
   "停": 977,
   "健": 978,
   "側": 979,
   "偵": 980,
   "偶": 981,
   "偷": 982,
   "偻": 983,
   "偽": 984,
   "偿": 985,
   "傀": 986,
   "傅": 987,
   "傍": 988,
   "傑": 989,
   "傘": 990,
   "備": 991,
   "傚": 992,
   "傢": 993,
   "傣": 994,
   "傥": 995,
   "储": 996,
   "傩": 997,
   "催": 998,
   "傭": 999,
   "傲": 1000,
   "傳": 1001,
   "債": 1002,
   "傷": 1003,
   "傻": 1004,
   "傾": 1005,
   "僅": 1006,
   "働": 1007,
   "像": 1008,
   "僑": 1009,
   "僕": 1010,
   "僖": 1011,
   "僚": 1012,
   "僥": 1013,
   "僧": 1014,
   "僭": 1015,
   "僮": 1016,
   "僱": 1017,
   "僵": 1018,
   "價": 1019,
   "僻": 1020,
   "儀": 1021,
   "儂": 1022,
   "億": 1023,
   "儆": 1024,
   "儉": 1025,
   "儋": 1026,
   "儒": 1027,
   "儕": 1028,
   "儘": 1029,
   "償": 1030,
   "儡": 1031,
   "優": 1032,
   "儲": 1033,
   "儷": 1034,
   "儼": 1035,
   "儿": 1036,
   "兀": 1037,
   "允": 1038,
   "元": 1039,
   "兄": 1040,
   "充": 1041,
   "兆": 1042,
   "兇": 1043,
   "先": 1044,
   "光": 1045,
   "克": 1046,
   "兌": 1047,
   "免": 1048,
   "児": 1049,
   "兑": 1050,
   "兒": 1051,
   "兔": 1052,
   "兖": 1053,
   "党": 1054,
   "兜": 1055,
   "兢": 1056,
   "入": 1057,
   "內": 1058,
   "全": 1059,
   "兩": 1060,
   "八": 1061,
   "公": 1062,
   "六": 1063,
   "兮": 1064,
   "兰": 1065,
   "共": 1066,
   "兲": 1067,
   "关": 1068,
   "兴": 1069,
   "兵": 1070,
   "其": 1071,
   "具": 1072,
   "典": 1073,
   "兹": 1074,
   "养": 1075,
   "兼": 1076,
   "兽": 1077,
   "冀": 1078,
   "内": 1079,
   "円": 1080,
   "冇": 1081,
   "冈": 1082,
   "冉": 1083,
   "冊": 1084,
   "册": 1085,
   "再": 1086,
   "冏": 1087,
   "冒": 1088,
   "冕": 1089,
   "冗": 1090,
   "写": 1091,
   "军": 1092,
   "农": 1093,
   "冠": 1094,
   "冢": 1095,
   "冤": 1096,
   "冥": 1097,
   "冨": 1098,
   "冪": 1099,
   "冬": 1100,
   "冯": 1101,
   "冰": 1102,
   "冲": 1103,
   "决": 1104,
   "况": 1105,
   "冶": 1106,
   "冷": 1107,
   "冻": 1108,
   "冼": 1109,
   "冽": 1110,
   "冾": 1111,
   "净": 1112,
   "凄": 1113,
   "准": 1114,
   "凇": 1115,
   "凈": 1116,
   "凉": 1117,
   "凋": 1118,
   "凌": 1119,
   "凍": 1120,
   "减": 1121,
   "凑": 1122,
   "凛": 1123,
   "凜": 1124,
   "凝": 1125,
   "几": 1126,
   "凡": 1127,
   "凤": 1128,
   "処": 1129,
   "凪": 1130,
   "凭": 1131,
   "凯": 1132,
   "凰": 1133,
   "凱": 1134,
   "凳": 1135,
   "凶": 1136,
   "凸": 1137,
   "凹": 1138,
   "出": 1139,
   "击": 1140,
   "函": 1141,
   "凿": 1142,
   "刀": 1143,
   "刁": 1144,
   "刃": 1145,
   "分": 1146,
   "切": 1147,
   "刈": 1148,
   "刊": 1149,
   "刍": 1150,
   "刎": 1151,
   "刑": 1152,
   "划": 1153,
   "列": 1154,
   "刘": 1155,
   "则": 1156,
   "刚": 1157,
   "创": 1158,
   "初": 1159,
   "删": 1160,
   "判": 1161,
   "別": 1162,
   "刨": 1163,
   "利": 1164,
   "刪": 1165,
   "别": 1166,
   "刮": 1167,
   "到": 1168,
   "制": 1169,
   "刷": 1170,
   "券": 1171,
   "刹": 1172,
   "刺": 1173,
   "刻": 1174,
   "刽": 1175,
   "剁": 1176,
   "剂": 1177,
   "剃": 1178,
   "則": 1179,
   "剉": 1180,
   "削": 1181,
   "剋": 1182,
   "剌": 1183,
   "前": 1184,
   "剎": 1185,
   "剐": 1186,
   "剑": 1187,
   "剔": 1188,
   "剖": 1189,
   "剛": 1190,
   "剜": 1191,
   "剝": 1192,
   "剣": 1193,
   "剤": 1194,
   "剥": 1195,
   "剧": 1196,
   "剩": 1197,
   "剪": 1198,
   "副": 1199,
   "割": 1200,
   "創": 1201,
   "剷": 1202,
   "剽": 1203,
   "剿": 1204,
   "劃": 1205,
   "劇": 1206,
   "劈": 1207,
   "劉": 1208,
   "劊": 1209,
   "劍": 1210,
   "劏": 1211,
   "劑": 1212,
   "力": 1213,
   "劝": 1214,
   "办": 1215,
   "功": 1216,
   "加": 1217,
   "务": 1218,
   "劣": 1219,
   "动": 1220,
   "助": 1221,
   "努": 1222,
   "劫": 1223,
   "劭": 1224,
   "励": 1225,
   "劲": 1226,
   "劳": 1227,
   "労": 1228,
   "劵": 1229,
   "効": 1230,
   "劾": 1231,
   "势": 1232,
   "勁": 1233,
   "勃": 1234,
   "勇": 1235,
   "勉": 1236,
   "勋": 1237,
   "勐": 1238,
   "勒": 1239,
   "動": 1240,
   "勖": 1241,
   "勘": 1242,
   "務": 1243,
   "勛": 1244,
   "勝": 1245,
   "勞": 1246,
   "募": 1247,
   "勢": 1248,
   "勤": 1249,
   "勧": 1250,
   "勳": 1251,
   "勵": 1252,
   "勸": 1253,
   "勺": 1254,
   "勻": 1255,
   "勾": 1256,
   "勿": 1257,
   "匀": 1258,
   "包": 1259,
   "匆": 1260,
   "匈": 1261,
   "匍": 1262,
   "匐": 1263,
   "匕": 1264,
   "化": 1265,
   "北": 1266,
   "匙": 1267,
   "匝": 1268,
   "匠": 1269,
   "匡": 1270,
   "匣": 1271,
   "匪": 1272,
   "匮": 1273,
   "匯": 1274,
   "匱": 1275,
   "匹": 1276,
   "区": 1277,
   "医": 1278,
   "匾": 1279,
   "匿": 1280,
   "區": 1281,
   "十": 1282,
   "千": 1283,
   "卅": 1284,
   "升": 1285,
   "午": 1286,
   "卉": 1287,
   "半": 1288,
   "卍": 1289,
   "华": 1290,
   "协": 1291,
   "卑": 1292,
   "卒": 1293,
   "卓": 1294,
   "協": 1295,
   "单": 1296,
   "卖": 1297,
   "南": 1298,
   "単": 1299,
   "博": 1300,
   "卜": 1301,
   "卞": 1302,
   "卟": 1303,
   "占": 1304,
   "卡": 1305,
   "卢": 1306,
   "卤": 1307,
   "卦": 1308,
   "卧": 1309,
   "卫": 1310,
   "卮": 1311,
   "卯": 1312,
   "印": 1313,
   "危": 1314,
   "即": 1315,
   "却": 1316,
   "卵": 1317,
   "卷": 1318,
   "卸": 1319,
   "卻": 1320,
   "卿": 1321,
   "厂": 1322,
   "厄": 1323,
   "厅": 1324,
   "历": 1325,
   "厉": 1326,
   "压": 1327,
   "厌": 1328,
   "厕": 1329,
   "厘": 1330,
   "厚": 1331,
   "厝": 1332,
   "原": 1333,
   "厢": 1334,
   "厥": 1335,
   "厦": 1336,
   "厨": 1337,
   "厩": 1338,
   "厭": 1339,
   "厮": 1340,
   "厲": 1341,
   "厳": 1342,
   "去": 1343,
   "县": 1344,
   "叁": 1345,
   "参": 1346,
   "參": 1347,
   "又": 1348,
   "叉": 1349,
   "及": 1350,
   "友": 1351,
   "双": 1352,
   "反": 1353,
   "収": 1354,
   "发": 1355,
   "叔": 1356,
   "取": 1357,
   "受": 1358,
   "变": 1359,
   "叙": 1360,
   "叛": 1361,
   "叟": 1362,
   "叠": 1363,
   "叡": 1364,
   "叢": 1365,
   "口": 1366,
   "古": 1367,
   "句": 1368,
   "另": 1369,
   "叨": 1370,
   "叩": 1371,
   "只": 1372,
   "叫": 1373,
   "召": 1374,
   "叭": 1375,
   "叮": 1376,
   "可": 1377,
   "台": 1378,
   "叱": 1379,
   "史": 1380,
   "右": 1381,
   "叵": 1382,
   "叶": 1383,
   "号": 1384,
   "司": 1385,
   "叹": 1386,
   "叻": 1387,
   "叼": 1388,
   "叽": 1389,
   "吁": 1390,
   "吃": 1391,
   "各": 1392,
   "吆": 1393,
   "合": 1394,
   "吉": 1395,
   "吊": 1396,
   "吋": 1397,
   "同": 1398,
   "名": 1399,
   "后": 1400,
   "吏": 1401,
   "吐": 1402,
   "向": 1403,
   "吒": 1404,
   "吓": 1405,
   "吕": 1406,
   "吖": 1407,
   "吗": 1408,
   "君": 1409,
   "吝": 1410,
   "吞": 1411,
   "吟": 1412,
   "吠": 1413,
   "吡": 1414,
   "否": 1415,
   "吧": 1416,
   "吨": 1417,
   "吩": 1418,
   "含": 1419,
   "听": 1420,
   "吭": 1421,
   "吮": 1422,
   "启": 1423,
   "吱": 1424,
   "吳": 1425,
   "吴": 1426,
   "吵": 1427,
   "吶": 1428,
   "吸": 1429,
   "吹": 1430,
   "吻": 1431,
   "吼": 1432,
   "吽": 1433,
   "吾": 1434,
   "呀": 1435,
   "呂": 1436,
   "呃": 1437,
   "呆": 1438,
   "呈": 1439,
   "告": 1440,
   "呋": 1441,
   "呎": 1442,
   "呐": 1443,
   "呓": 1444,
   "呕": 1445,
   "呗": 1446,
   "员": 1447,
   "呛": 1448,
   "呜": 1449,
   "呢": 1450,
   "呤": 1451,
   "呦": 1452,
   "周": 1453,
   "呱": 1454,
   "呲": 1455,
   "味": 1456,
   "呵": 1457,
   "呷": 1458,
   "呸": 1459,
   "呻": 1460,
   "呼": 1461,
   "命": 1462,
   "咀": 1463,
   "咁": 1464,
   "咂": 1465,
   "咄": 1466,
   "咆": 1467,
   "咋": 1468,
   "和": 1469,
   "咎": 1470,
   "咏": 1471,
   "咐": 1472,
   "咒": 1473,
   "咔": 1474,
   "咕": 1475,
   "咖": 1476,
   "咗": 1477,
   "咘": 1478,
   "咙": 1479,
   "咚": 1480,
   "咛": 1481,
   "咣": 1482,
   "咤": 1483,
   "咦": 1484,
   "咧": 1485,
   "咨": 1486,
   "咩": 1487,
   "咪": 1488,
   "咫": 1489,
   "咬": 1490,
   "咭": 1491,
   "咯": 1492,
   "咱": 1493,
   "咲": 1494,
   "咳": 1495,
   "咸": 1496,
   "咻": 1497,
   "咽": 1498,
   "咿": 1499,
   "哀": 1500,
   "品": 1501,
   "哂": 1502,
   "哄": 1503,
   "哆": 1504,
   "哇": 1505,
   "哈": 1506,
   "哉": 1507,
   "哋": 1508,
   "哌": 1509,
   "响": 1510,
   "哎": 1511,
   "哏": 1512,
   "哐": 1513,
   "哑": 1514,
   "哒": 1515,
   "哔": 1516,
   "哗": 1517,
   "哟": 1518,
   "員": 1519,
   "哥": 1520,
   "哦": 1521,
   "哧": 1522,
   "哨": 1523,
   "哩": 1524,
   "哪": 1525,
   "哭": 1526,
   "哮": 1527,
   "哲": 1528,
   "哺": 1529,
   "哼": 1530,
   "哽": 1531,
   "唁": 1532,
   "唄": 1533,
   "唆": 1534,
   "唇": 1535,
   "唉": 1536,
   "唏": 1537,
   "唐": 1538,
   "唑": 1539,
   "唔": 1540,
   "唠": 1541,
   "唤": 1542,
   "唧": 1543,
   "唬": 1544,
   "售": 1545,
   "唯": 1546,
   "唰": 1547,
   "唱": 1548,
   "唳": 1549,
   "唷": 1550,
   "唸": 1551,
   "唾": 1552,
   "啃": 1553,
   "啄": 1554,
   "商": 1555,
   "啉": 1556,
   "啊": 1557,
   "問": 1558,
   "啓": 1559,
   "啕": 1560,
   "啖": 1561,
   "啜": 1562,
   "啞": 1563,
   "啟": 1564,
   "啡": 1565,
   "啤": 1566,
   "啥": 1567,
   "啦": 1568,
   "啧": 1569,
   "啪": 1570,
   "啫": 1571,
   "啬": 1572,
   "啮": 1573,
   "啰": 1574,
   "啱": 1575,
   "啲": 1576,
   "啵": 1577,
   "啶": 1578,
   "啷": 1579,
   "啸": 1580,
   "啻": 1581,
   "啼": 1582,
   "啾": 1583,
   "喀": 1584,
   "喂": 1585,
   "喃": 1586,
   "善": 1587,
   "喆": 1588,
   "喇": 1589,
   "喉": 1590,
   "喊": 1591,
   "喋": 1592,
   "喎": 1593,
   "喏": 1594,
   "喔": 1595,
   "喘": 1596,
   "喙": 1597,
   "喚": 1598,
   "喜": 1599,
   "喝": 1600,
   "喟": 1601,
   "喧": 1602,
   "喪": 1603,
   "喫": 1604,
   "喬": 1605,
   "單": 1606,
   "喰": 1607,
   "喱": 1608,
   "喲": 1609,
   "喳": 1610,
   "喵": 1611,
   "営": 1612,
   "喷": 1613,
   "喹": 1614,
   "喺": 1615,
   "喻": 1616,
   "喽": 1617,
   "嗅": 1618,
   "嗆": 1619,
   "嗇": 1620,
   "嗎": 1621,
   "嗑": 1622,
   "嗒": 1623,
   "嗓": 1624,
   "嗔": 1625,
   "嗖": 1626,
   "嗚": 1627,
   "嗜": 1628,
   "嗝": 1629,
   "嗟": 1630,
   "嗡": 1631,
   "嗣": 1632,
   "嗤": 1633,
   "嗦": 1634,
   "嗨": 1635,
   "嗪": 1636,
   "嗬": 1637,
   "嗯": 1638,
   "嗰": 1639,
   "嗲": 1640,
   "嗳": 1641,
   "嗶": 1642,
   "嗷": 1643,
   "嗽": 1644,
   "嘀": 1645,
   "嘅": 1646,
   "嘆": 1647,
   "嘈": 1648,
   "嘉": 1649,
   "嘌": 1650,
   "嘍": 1651,
   "嘎": 1652,
   "嘔": 1653,
   "嘖": 1654,
   "嘗": 1655,
   "嘘": 1656,
   "嘚": 1657,
   "嘛": 1658,
   "嘜": 1659,
   "嘞": 1660,
   "嘟": 1661,
   "嘢": 1662,
   "嘣": 1663,
   "嘤": 1664,
   "嘧": 1665,
   "嘩": 1666,
   "嘭": 1667,
   "嘮": 1668,
   "嘯": 1669,
   "嘰": 1670,
   "嘱": 1671,
   "嘲": 1672,
   "嘴": 1673,
   "嘶": 1674,
   "嘸": 1675,
   "嘹": 1676,
   "嘻": 1677,
   "嘿": 1678,
   "噁": 1679,
   "噌": 1680,
   "噎": 1681,
   "噓": 1682,
   "噔": 1683,
   "噗": 1684,
   "噙": 1685,
   "噜": 1686,
   "噠": 1687,
   "噢": 1688,
   "噤": 1689,
   "器": 1690,
   "噩": 1691,
   "噪": 1692,
   "噬": 1693,
   "噱": 1694,
   "噴": 1695,
   "噶": 1696,
   "噸": 1697,
   "噹": 1698,
   "噻": 1699,
   "噼": 1700,
   "嚀": 1701,
   "嚇": 1702,
   "嚎": 1703,
   "嚏": 1704,
   "嚐": 1705,
   "嚓": 1706,
   "嚕": 1707,
   "嚟": 1708,
   "嚣": 1709,
   "嚥": 1710,
   "嚨": 1711,
   "嚮": 1712,
   "嚴": 1713,
   "嚷": 1714,
   "嚼": 1715,
   "囂": 1716,
   "囉": 1717,
   "囊": 1718,
   "囍": 1719,
   "囑": 1720,
   "囔": 1721,
   "囗": 1722,
   "囚": 1723,
   "四": 1724,
   "囝": 1725,
   "回": 1726,
   "囟": 1727,
   "因": 1728,
   "囡": 1729,
   "团": 1730,
   "団": 1731,
   "囤": 1732,
   "囧": 1733,
   "囪": 1734,
   "囫": 1735,
   "园": 1736,
   "困": 1737,
   "囱": 1738,
   "囲": 1739,
   "図": 1740,
   "围": 1741,
   "囹": 1742,
   "固": 1743,
   "国": 1744,
   "图": 1745,
   "囿": 1746,
   "圃": 1747,
   "圄": 1748,
   "圆": 1749,
   "圈": 1750,
   "國": 1751,
   "圍": 1752,
   "圏": 1753,
   "園": 1754,
   "圓": 1755,
   "圖": 1756,
   "團": 1757,
   "圜": 1758,
   "土": 1759,
   "圣": 1760,
   "圧": 1761,
   "在": 1762,
   "圩": 1763,
   "圭": 1764,
   "地": 1765,
   "圳": 1766,
   "场": 1767,
   "圻": 1768,
   "圾": 1769,
   "址": 1770,
   "坂": 1771,
   "均": 1772,
   "坊": 1773,
   "坍": 1774,
   "坎": 1775,
   "坏": 1776,
   "坐": 1777,
   "坑": 1778,
   "块": 1779,
   "坚": 1780,
   "坛": 1781,
   "坝": 1782,
   "坞": 1783,
   "坟": 1784,
   "坠": 1785,
   "坡": 1786,
   "坤": 1787,
   "坦": 1788,
   "坨": 1789,
   "坪": 1790,
   "坯": 1791,
   "坳": 1792,
   "坵": 1793,
   "坷": 1794,
   "垂": 1795,
   "垃": 1796,
   "垄": 1797,
   "型": 1798,
   "垒": 1799,
   "垚": 1800,
   "垛": 1801,
   "垠": 1802,
   "垢": 1803,
   "垣": 1804,
   "垦": 1805,
   "垩": 1806,
   "垫": 1807,
   "垭": 1808,
   "垮": 1809,
   "垵": 1810,
   "埂": 1811,
   "埃": 1812,
   "埋": 1813,
   "城": 1814,
   "埔": 1815,
   "埕": 1816,
   "埗": 1817,
   "域": 1818,
   "埠": 1819,
   "埤": 1820,
   "埵": 1821,
   "執": 1822,
   "埸": 1823,
   "培": 1824,
   "基": 1825,
   "埼": 1826,
   "堀": 1827,
   "堂": 1828,
   "堃": 1829,
   "堅": 1830,
   "堆": 1831,
   "堇": 1832,
   "堑": 1833,
   "堕": 1834,
   "堙": 1835,
   "堡": 1836,
   "堤": 1837,
   "堪": 1838,
   "堯": 1839,
   "堰": 1840,
   "報": 1841,
   "場": 1842,
   "堵": 1843,
   "堺": 1844,
   "堿": 1845,
   "塊": 1846,
   "塌": 1847,
   "塑": 1848,
   "塔": 1849,
   "塗": 1850,
   "塘": 1851,
   "塚": 1852,
   "塞": 1853,
   "塢": 1854,
   "塩": 1855,
   "填": 1856,
   "塬": 1857,
   "塭": 1858,
   "塵": 1859,
   "塾": 1860,
   "墀": 1861,
   "境": 1862,
   "墅": 1863,
   "墉": 1864,
   "墊": 1865,
   "墒": 1866,
   "墓": 1867,
   "増": 1868,
   "墘": 1869,
   "墙": 1870,
   "墜": 1871,
   "增": 1872,
   "墟": 1873,
   "墨": 1874,
   "墩": 1875,
   "墮": 1876,
   "墳": 1877,
   "墻": 1878,
   "墾": 1879,
   "壁": 1880,
   "壅": 1881,
   "壆": 1882,
   "壇": 1883,
   "壊": 1884,
   "壑": 1885,
   "壓": 1886,
   "壕": 1887,
   "壘": 1888,
   "壞": 1889,
   "壟": 1890,
   "壢": 1891,
   "壤": 1892,
   "壩": 1893,
   "士": 1894,
   "壬": 1895,
   "壮": 1896,
   "壯": 1897,
   "声": 1898,
   "売": 1899,
   "壳": 1900,
   "壶": 1901,
   "壹": 1902,
   "壺": 1903,
   "壽": 1904,
   "处": 1905,
   "备": 1906,
   "変": 1907,
   "复": 1908,
   "夏": 1909,
   "夔": 1910,
   "夕": 1911,
   "外": 1912,
   "夙": 1913,
   "多": 1914,
   "夜": 1915,
   "够": 1916,
   "夠": 1917,
   "夢": 1918,
   "夥": 1919,
   "大": 1920,
   "天": 1921,
   "太": 1922,
   "夫": 1923,
   "夭": 1924,
   "央": 1925,
   "夯": 1926,
   "失": 1927,
   "头": 1928,
   "夷": 1929,
   "夸": 1930,
   "夹": 1931,
   "夺": 1932,
   "夾": 1933,
   "奂": 1934,
   "奄": 1935,
   "奇": 1936,
   "奈": 1937,
   "奉": 1938,
   "奋": 1939,
   "奎": 1940,
   "奏": 1941,
   "奐": 1942,
   "契": 1943,
   "奔": 1944,
   "奕": 1945,
   "奖": 1946,
   "套": 1947,
   "奘": 1948,
   "奚": 1949,
   "奠": 1950,
   "奢": 1951,
   "奥": 1952,
   "奧": 1953,
   "奪": 1954,
   "奬": 1955,
   "奮": 1956,
   "女": 1957,
   "奴": 1958,
   "奶": 1959,
   "奸": 1960,
   "她": 1961,
   "好": 1962,
   "如": 1963,
   "妃": 1964,
   "妄": 1965,
   "妆": 1966,
   "妇": 1967,
   "妈": 1968,
   "妊": 1969,
   "妍": 1970,
   "妒": 1971,
   "妓": 1972,
   "妖": 1973,
   "妘": 1974,
   "妙": 1975,
   "妝": 1976,
   "妞": 1977,
   "妣": 1978,
   "妤": 1979,
   "妥": 1980,
   "妨": 1981,
   "妩": 1982,
   "妪": 1983,
   "妮": 1984,
   "妲": 1985,
   "妳": 1986,
   "妹": 1987,
   "妻": 1988,
   "妾": 1989,
   "姆": 1990,
   "姉": 1991,
   "姊": 1992,
   "始": 1993,
   "姍": 1994,
   "姐": 1995,
   "姑": 1996,
   "姒": 1997,
   "姓": 1998,
   "委": 1999,
   "姗": 2000,
   "姚": 2001,
   "姜": 2002,
   "姝": 2003,
   "姣": 2004,
   "姥": 2005,
   "姦": 2006,
   "姨": 2007,
   "姪": 2008,
   "姫": 2009,
   "姬": 2010,
   "姹": 2011,
   "姻": 2012,
   "姿": 2013,
   "威": 2014,
   "娃": 2015,
   "娄": 2016,
   "娅": 2017,
   "娆": 2018,
   "娇": 2019,
   "娉": 2020,
   "娑": 2021,
   "娓": 2022,
   "娘": 2023,
   "娛": 2024,
   "娜": 2025,
   "娟": 2026,
   "娠": 2027,
   "娣": 2028,
   "娥": 2029,
   "娩": 2030,
   "娱": 2031,
   "娲": 2032,
   "娴": 2033,
   "娶": 2034,
   "娼": 2035,
   "婀": 2036,
   "婁": 2037,
   "婆": 2038,
   "婉": 2039,
   "婊": 2040,
   "婕": 2041,
   "婚": 2042,
   "婢": 2043,
   "婦": 2044,
   "婧": 2045,
   "婪": 2046,
   "婭": 2047,
   "婴": 2048,
   "婵": 2049,
   "婶": 2050,
   "婷": 2051,
   "婺": 2052,
   "婿": 2053,
   "媒": 2054,
   "媚": 2055,
   "媛": 2056,
   "媞": 2057,
   "媧": 2058,
   "媲": 2059,
   "媳": 2060,
   "媽": 2061,
   "媾": 2062,
   "嫁": 2063,
   "嫂": 2064,
   "嫉": 2065,
   "嫌": 2066,
   "嫑": 2067,
   "嫔": 2068,
   "嫖": 2069,
   "嫘": 2070,
   "嫚": 2071,
   "嫡": 2072,
   "嫣": 2073,
   "嫦": 2074,
   "嫩": 2075,
   "嫲": 2076,
   "嫵": 2077,
   "嫻": 2078,
   "嬅": 2079,
   "嬉": 2080,
   "嬌": 2081,
   "嬗": 2082,
   "嬛": 2083,
   "嬢": 2084,
   "嬤": 2085,
   "嬪": 2086,
   "嬰": 2087,
   "嬴": 2088,
   "嬷": 2089,
   "嬸": 2090,
   "嬿": 2091,
   "孀": 2092,
   "孃": 2093,
   "子": 2094,
   "孑": 2095,
   "孔": 2096,
   "孕": 2097,
   "孖": 2098,
   "字": 2099,
   "存": 2100,
   "孙": 2101,
   "孚": 2102,
   "孛": 2103,
   "孜": 2104,
   "孝": 2105,
   "孟": 2106,
   "孢": 2107,
   "季": 2108,
   "孤": 2109,
   "学": 2110,
   "孩": 2111,
   "孪": 2112,
   "孫": 2113,
   "孬": 2114,
   "孰": 2115,
   "孱": 2116,
   "孳": 2117,
   "孵": 2118,
   "學": 2119,
   "孺": 2120,
   "孽": 2121,
   "孿": 2122,
   "宁": 2123,
   "它": 2124,
   "宅": 2125,
   "宇": 2126,
   "守": 2127,
   "安": 2128,
   "宋": 2129,
   "完": 2130,
   "宏": 2131,
   "宓": 2132,
   "宕": 2133,
   "宗": 2134,
   "官": 2135,
   "宙": 2136,
   "定": 2137,
   "宛": 2138,
   "宜": 2139,
   "宝": 2140,
   "实": 2141,
   "実": 2142,
   "宠": 2143,
   "审": 2144,
   "客": 2145,
   "宣": 2146,
   "室": 2147,
   "宥": 2148,
   "宦": 2149,
   "宪": 2150,
   "宫": 2151,
   "宮": 2152,
   "宰": 2153,
   "害": 2154,
   "宴": 2155,
   "宵": 2156,
   "家": 2157,
   "宸": 2158,
   "容": 2159,
   "宽": 2160,
   "宾": 2161,
   "宿": 2162,
   "寂": 2163,
   "寄": 2164,
   "寅": 2165,
   "密": 2166,
   "寇": 2167,
   "富": 2168,
   "寐": 2169,
   "寒": 2170,
   "寓": 2171,
   "寛": 2172,
   "寝": 2173,
   "寞": 2174,
   "察": 2175,
   "寡": 2176,
   "寢": 2177,
   "寥": 2178,
   "實": 2179,
   "寧": 2180,
   "寨": 2181,
   "審": 2182,
   "寫": 2183,
   "寬": 2184,
   "寮": 2185,
   "寰": 2186,
   "寵": 2187,
   "寶": 2188,
   "寸": 2189,
   "对": 2190,
   "寺": 2191,
   "寻": 2192,
   "导": 2193,
   "対": 2194,
   "寿": 2195,
   "封": 2196,
   "専": 2197,
   "射": 2198,
   "将": 2199,
   "將": 2200,
   "專": 2201,
   "尉": 2202,
   "尊": 2203,
   "尋": 2204,
   "對": 2205,
   "導": 2206,
   "小": 2207,
   "少": 2208,
   "尔": 2209,
   "尕": 2210,
   "尖": 2211,
   "尘": 2212,
   "尚": 2213,
   "尝": 2214,
   "尤": 2215,
   "尧": 2216,
   "尬": 2217,
   "就": 2218,
   "尴": 2219,
   "尷": 2220,
   "尸": 2221,
   "尹": 2222,
   "尺": 2223,
   "尻": 2224,
   "尼": 2225,
   "尽": 2226,
   "尾": 2227,
   "尿": 2228,
   "局": 2229,
   "屁": 2230,
   "层": 2231,
   "屄": 2232,
   "居": 2233,
   "屆": 2234,
   "屈": 2235,
   "屉": 2236,
   "届": 2237,
   "屋": 2238,
   "屌": 2239,
   "屍": 2240,
   "屎": 2241,
   "屏": 2242,
   "屐": 2243,
   "屑": 2244,
   "展": 2245,
   "屜": 2246,
   "属": 2247,
   "屠": 2248,
   "屡": 2249,
   "屢": 2250,
   "層": 2251,
   "履": 2252,
   "屬": 2253,
   "屯": 2254,
   "山": 2255,
   "屹": 2256,
   "屿": 2257,
   "岀": 2258,
   "岁": 2259,
   "岂": 2260,
   "岌": 2261,
   "岐": 2262,
   "岑": 2263,
   "岔": 2264,
   "岖": 2265,
   "岗": 2266,
   "岘": 2267,
   "岙": 2268,
   "岚": 2269,
   "岛": 2270,
   "岡": 2271,
   "岩": 2272,
   "岫": 2273,
   "岬": 2274,
   "岭": 2275,
   "岱": 2276,
   "岳": 2277,
   "岷": 2278,
   "岸": 2279,
   "峇": 2280,
   "峋": 2281,
   "峒": 2282,
   "峙": 2283,
   "峡": 2284,
   "峤": 2285,
   "峥": 2286,
   "峦": 2287,
   "峨": 2288,
   "峪": 2289,
   "峭": 2290,
   "峯": 2291,
   "峰": 2292,
   "峴": 2293,
   "島": 2294,
   "峻": 2295,
   "峽": 2296,
   "崁": 2297,
   "崂": 2298,
   "崆": 2299,
   "崇": 2300,
   "崎": 2301,
   "崑": 2302,
   "崔": 2303,
   "崖": 2304,
   "崗": 2305,
   "崙": 2306,
   "崛": 2307,
   "崧": 2308,
   "崩": 2309,
   "崭": 2310,
   "崴": 2311,
   "崽": 2312,
   "嵇": 2313,
   "嵊": 2314,
   "嵋": 2315,
   "嵌": 2316,
   "嵐": 2317,
   "嵘": 2318,
   "嵩": 2319,
   "嵬": 2320,
   "嵯": 2321,
   "嶂": 2322,
   "嶄": 2323,
   "嶇": 2324,
   "嶋": 2325,
   "嶙": 2326,
   "嶺": 2327,
   "嶼": 2328,
   "嶽": 2329,
   "巅": 2330,
   "巍": 2331,
   "巒": 2332,
   "巔": 2333,
   "巖": 2334,
   "川": 2335,
   "州": 2336,
   "巡": 2337,
   "巢": 2338,
   "工": 2339,
   "左": 2340,
   "巧": 2341,
   "巨": 2342,
   "巩": 2343,
   "巫": 2344,
   "差": 2345,
   "己": 2346,
   "已": 2347,
   "巳": 2348,
   "巴": 2349,
   "巷": 2350,
   "巻": 2351,
   "巽": 2352,
   "巾": 2353,
   "巿": 2354,
   "币": 2355,
   "市": 2356,
   "布": 2357,
   "帅": 2358,
   "帆": 2359,
   "师": 2360,
   "希": 2361,
   "帐": 2362,
   "帑": 2363,
   "帕": 2364,
   "帖": 2365,
   "帘": 2366,
   "帚": 2367,
   "帛": 2368,
   "帜": 2369,
   "帝": 2370,
   "帥": 2371,
   "带": 2372,
   "帧": 2373,
   "師": 2374,
   "席": 2375,
   "帮": 2376,
   "帯": 2377,
   "帰": 2378,
   "帳": 2379,
   "帶": 2380,
   "帷": 2381,
   "常": 2382,
   "帼": 2383,
   "帽": 2384,
   "幀": 2385,
   "幂": 2386,
   "幄": 2387,
   "幅": 2388,
   "幌": 2389,
   "幔": 2390,
   "幕": 2391,
   "幟": 2392,
   "幡": 2393,
   "幢": 2394,
   "幣": 2395,
   "幫": 2396,
   "干": 2397,
   "平": 2398,
   "年": 2399,
   "并": 2400,
   "幸": 2401,
   "幹": 2402,
   "幺": 2403,
   "幻": 2404,
   "幼": 2405,
   "幽": 2406,
   "幾": 2407,
   "广": 2408,
   "庁": 2409,
   "広": 2410,
   "庄": 2411,
   "庆": 2412,
   "庇": 2413,
   "床": 2414,
   "序": 2415,
   "庐": 2416,
   "库": 2417,
   "应": 2418,
   "底": 2419,
   "庖": 2420,
   "店": 2421,
   "庙": 2422,
   "庚": 2423,
   "府": 2424,
   "庞": 2425,
   "废": 2426,
   "庠": 2427,
   "度": 2428,
   "座": 2429,
   "庫": 2430,
   "庭": 2431,
   "庵": 2432,
   "庶": 2433,
   "康": 2434,
   "庸": 2435,
   "庹": 2436,
   "庾": 2437,
   "廁": 2438,
   "廂": 2439,
   "廃": 2440,
   "廈": 2441,
   "廉": 2442,
   "廊": 2443,
   "廓": 2444,
   "廖": 2445,
   "廚": 2446,
   "廝": 2447,
   "廟": 2448,
   "廠": 2449,
   "廢": 2450,
   "廣": 2451,
   "廬": 2452,
   "廳": 2453,
   "延": 2454,
   "廷": 2455,
   "建": 2456,
   "廿": 2457,
   "开": 2458,
   "弁": 2459,
   "异": 2460,
   "弃": 2461,
   "弄": 2462,
   "弈": 2463,
   "弊": 2464,
   "弋": 2465,
   "式": 2466,
   "弑": 2467,
   "弒": 2468,
   "弓": 2469,
   "弔": 2470,
   "引": 2471,
   "弗": 2472,
   "弘": 2473,
   "弛": 2474,
   "弟": 2475,
   "张": 2476,
   "弥": 2477,
   "弦": 2478,
   "弧": 2479,
   "弩": 2480,
   "弭": 2481,
   "弯": 2482,
   "弱": 2483,
   "張": 2484,
   "強": 2485,
   "弹": 2486,
   "强": 2487,
   "弼": 2488,
   "弾": 2489,
   "彅": 2490,
   "彆": 2491,
   "彈": 2492,
   "彌": 2493,
   "彎": 2494,
   "归": 2495,
   "当": 2496,
   "录": 2497,
   "彗": 2498,
   "彙": 2499,
   "彝": 2500,
   "形": 2501,
   "彤": 2502,
   "彥": 2503,
   "彦": 2504,
   "彧": 2505,
   "彩": 2506,
   "彪": 2507,
   "彫": 2508,
   "彬": 2509,
   "彭": 2510,
   "彰": 2511,
   "影": 2512,
   "彷": 2513,
   "役": 2514,
   "彻": 2515,
   "彼": 2516,
   "彿": 2517,
   "往": 2518,
   "征": 2519,
   "径": 2520,
   "待": 2521,
   "徇": 2522,
   "很": 2523,
   "徉": 2524,
   "徊": 2525,
   "律": 2526,
   "後": 2527,
   "徐": 2528,
   "徑": 2529,
   "徒": 2530,
   "従": 2531,
   "徕": 2532,
   "得": 2533,
   "徘": 2534,
   "徙": 2535,
   "徜": 2536,
   "從": 2537,
   "徠": 2538,
   "御": 2539,
   "徨": 2540,
   "復": 2541,
   "循": 2542,
   "徬": 2543,
   "微": 2544,
   "徳": 2545,
   "徴": 2546,
   "徵": 2547,
   "德": 2548,
   "徹": 2549,
   "徼": 2550,
   "徽": 2551,
   "心": 2552,
   "必": 2553,
   "忆": 2554,
   "忌": 2555,
   "忍": 2556,
   "忏": 2557,
   "忐": 2558,
   "忑": 2559,
   "忒": 2560,
   "忖": 2561,
   "志": 2562,
   "忘": 2563,
   "忙": 2564,
   "応": 2565,
   "忠": 2566,
   "忡": 2567,
   "忤": 2568,
   "忧": 2569,
   "忪": 2570,
   "快": 2571,
   "忱": 2572,
   "念": 2573,
   "忻": 2574,
   "忽": 2575,
   "忿": 2576,
   "怀": 2577,
   "态": 2578,
   "怂": 2579,
   "怅": 2580,
   "怆": 2581,
   "怎": 2582,
   "怏": 2583,
   "怒": 2584,
   "怔": 2585,
   "怕": 2586,
   "怖": 2587,
   "怙": 2588,
   "怜": 2589,
   "思": 2590,
   "怠": 2591,
   "怡": 2592,
   "急": 2593,
   "怦": 2594,
   "性": 2595,
   "怨": 2596,
   "怪": 2597,
   "怯": 2598,
   "怵": 2599,
   "总": 2600,
   "怼": 2601,
   "恁": 2602,
   "恃": 2603,
   "恆": 2604,
   "恋": 2605,
   "恍": 2606,
   "恐": 2607,
   "恒": 2608,
   "恕": 2609,
   "恙": 2610,
   "恚": 2611,
   "恢": 2612,
   "恣": 2613,
   "恤": 2614,
   "恥": 2615,
   "恨": 2616,
   "恩": 2617,
   "恪": 2618,
   "恫": 2619,
   "恬": 2620,
   "恭": 2621,
   "息": 2622,
   "恰": 2623,
   "恳": 2624,
   "恵": 2625,
   "恶": 2626,
   "恸": 2627,
   "恺": 2628,
   "恻": 2629,
   "恼": 2630,
   "恿": 2631,
   "悄": 2632,
   "悅": 2633,
   "悉": 2634,
   "悌": 2635,
   "悍": 2636,
   "悔": 2637,
   "悖": 2638,
   "悚": 2639,
   "悟": 2640,
   "悠": 2641,
   "患": 2642,
   "悦": 2643,
   "您": 2644,
   "悩": 2645,
   "悪": 2646,
   "悬": 2647,
   "悯": 2648,
   "悱": 2649,
   "悲": 2650,
   "悴": 2651,
   "悵": 2652,
   "悶": 2653,
   "悸": 2654,
   "悻": 2655,
   "悼": 2656,
   "悽": 2657,
   "情": 2658,
   "惆": 2659,
   "惇": 2660,
   "惊": 2661,
   "惋": 2662,
   "惑": 2663,
   "惕": 2664,
   "惘": 2665,
   "惚": 2666,
   "惜": 2667,
   "惟": 2668,
   "惠": 2669,
   "惡": 2670,
   "惦": 2671,
   "惧": 2672,
   "惨": 2673,
   "惩": 2674,
   "惫": 2675,
   "惬": 2676,
   "惭": 2677,
   "惮": 2678,
   "惯": 2679,
   "惰": 2680,
   "惱": 2681,
   "想": 2682,
   "惴": 2683,
   "惶": 2684,
   "惹": 2685,
   "惺": 2686,
   "愁": 2687,
   "愆": 2688,
   "愈": 2689,
   "愉": 2690,
   "愍": 2691,
   "意": 2692,
   "愕": 2693,
   "愚": 2694,
   "愛": 2695,
   "愜": 2696,
   "感": 2697,
   "愣": 2698,
   "愤": 2699,
   "愧": 2700,
   "愫": 2701,
   "愷": 2702,
   "愿": 2703,
   "慄": 2704,
   "慈": 2705,
   "態": 2706,
   "慌": 2707,
   "慎": 2708,
   "慑": 2709,
   "慕": 2710,
   "慘": 2711,
   "慚": 2712,
   "慟": 2713,
   "慢": 2714,
   "慣": 2715,
   "慧": 2716,
   "慨": 2717,
   "慫": 2718,
   "慮": 2719,
   "慰": 2720,
   "慳": 2721,
   "慵": 2722,
   "慶": 2723,
   "慷": 2724,
   "慾": 2725,
   "憂": 2726,
   "憊": 2727,
   "憋": 2728,
   "憎": 2729,
   "憐": 2730,
   "憑": 2731,
   "憔": 2732,
   "憚": 2733,
   "憤": 2734,
   "憧": 2735,
   "憨": 2736,
   "憩": 2737,
   "憫": 2738,
   "憬": 2739,
   "憲": 2740,
   "憶": 2741,
   "憾": 2742,
   "懂": 2743,
   "懇": 2744,
   "懈": 2745,
   "應": 2746,
   "懊": 2747,
   "懋": 2748,
   "懑": 2749,
   "懒": 2750,
   "懦": 2751,
   "懲": 2752,
   "懵": 2753,
   "懶": 2754,
   "懷": 2755,
   "懸": 2756,
   "懺": 2757,
   "懼": 2758,
   "懾": 2759,
   "懿": 2760,
   "戀": 2761,
   "戈": 2762,
   "戊": 2763,
   "戌": 2764,
   "戍": 2765,
   "戎": 2766,
   "戏": 2767,
   "成": 2768,
   "我": 2769,
   "戒": 2770,
   "戕": 2771,
   "或": 2772,
   "战": 2773,
   "戚": 2774,
   "戛": 2775,
   "戟": 2776,
   "戡": 2777,
   "戦": 2778,
   "截": 2779,
   "戬": 2780,
   "戮": 2781,
   "戰": 2782,
   "戲": 2783,
   "戳": 2784,
   "戴": 2785,
   "戶": 2786,
   "户": 2787,
   "戸": 2788,
   "戻": 2789,
   "戾": 2790,
   "房": 2791,
   "所": 2792,
   "扁": 2793,
   "扇": 2794,
   "扈": 2795,
   "扉": 2796,
   "手": 2797,
   "才": 2798,
   "扎": 2799,
   "扑": 2800,
   "扒": 2801,
   "打": 2802,
   "扔": 2803,
   "払": 2804,
   "托": 2805,
   "扛": 2806,
   "扣": 2807,
   "扦": 2808,
   "执": 2809,
   "扩": 2810,
   "扪": 2811,
   "扫": 2812,
   "扬": 2813,
   "扭": 2814,
   "扮": 2815,
   "扯": 2816,
   "扰": 2817,
   "扱": 2818,
   "扳": 2819,
   "扶": 2820,
   "批": 2821,
   "扼": 2822,
   "找": 2823,
   "承": 2824,
   "技": 2825,
   "抄": 2826,
   "抉": 2827,
   "把": 2828,
   "抑": 2829,
   "抒": 2830,
   "抓": 2831,
   "投": 2832,
   "抖": 2833,
   "抗": 2834,
   "折": 2835,
   "抚": 2836,
   "抛": 2837,
   "抜": 2838,
   "択": 2839,
   "抟": 2840,
   "抠": 2841,
   "抡": 2842,
   "抢": 2843,
   "护": 2844,
   "报": 2845,
   "抨": 2846,
   "披": 2847,
   "抬": 2848,
   "抱": 2849,
   "抵": 2850,
   "抹": 2851,
   "押": 2852,
   "抽": 2853,
   "抿": 2854,
   "拂": 2855,
   "拄": 2856,
   "担": 2857,
   "拆": 2858,
   "拇": 2859,
   "拈": 2860,
   "拉": 2861,
   "拋": 2862,
   "拌": 2863,
   "拍": 2864,
   "拎": 2865,
   "拐": 2866,
   "拒": 2867,
   "拓": 2868,
   "拔": 2869,
   "拖": 2870,
   "拗": 2871,
   "拘": 2872,
   "拙": 2873,
   "拚": 2874,
   "招": 2875,
   "拜": 2876,
   "拟": 2877,
   "拡": 2878,
   "拢": 2879,
   "拣": 2880,
   "拥": 2881,
   "拦": 2882,
   "拧": 2883,
   "拨": 2884,
   "择": 2885,
   "括": 2886,
   "拭": 2887,
   "拮": 2888,
   "拯": 2889,
   "拱": 2890,
   "拳": 2891,
   "拴": 2892,
   "拷": 2893,
   "拼": 2894,
   "拽": 2895,
   "拾": 2896,
   "拿": 2897,
   "持": 2898,
   "挂": 2899,
   "指": 2900,
   "挈": 2901,
   "按": 2902,
   "挎": 2903,
   "挑": 2904,
   "挖": 2905,
   "挙": 2906,
   "挚": 2907,
   "挛": 2908,
   "挝": 2909,
   "挞": 2910,
   "挟": 2911,
   "挠": 2912,
   "挡": 2913,
   "挣": 2914,
   "挤": 2915,
   "挥": 2916,
   "挨": 2917,
   "挪": 2918,
   "挫": 2919,
   "振": 2920,
   "挲": 2921,
   "挹": 2922,
   "挺": 2923,
   "挽": 2924,
   "挾": 2925,
   "捂": 2926,
   "捅": 2927,
   "捆": 2928,
   "捉": 2929,
   "捋": 2930,
   "捌": 2931,
   "捍": 2932,
   "捎": 2933,
   "捏": 2934,
   "捐": 2935,
   "捕": 2936,
   "捞": 2937,
   "损": 2938,
   "捡": 2939,
   "换": 2940,
   "捣": 2941,
   "捧": 2942,
   "捨": 2943,
   "捩": 2944,
   "据": 2945,
   "捱": 2946,
   "捲": 2947,
   "捶": 2948,
   "捷": 2949,
   "捺": 2950,
   "捻": 2951,
   "掀": 2952,
   "掂": 2953,
   "掃": 2954,
   "掇": 2955,
   "授": 2956,
   "掉": 2957,
   "掌": 2958,
   "掏": 2959,
   "掐": 2960,
   "排": 2961,
   "掖": 2962,
   "掘": 2963,
   "掙": 2964,
   "掛": 2965,
   "掠": 2966,
   "採": 2967,
   "探": 2968,
   "掣": 2969,
   "接": 2970,
   "控": 2971,
   "推": 2972,
   "掩": 2973,
   "措": 2974,
   "掬": 2975,
   "掰": 2976,
   "掲": 2977,
   "掳": 2978,
   "掴": 2979,
   "掷": 2980,
   "掸": 2981,
   "掺": 2982,
   "揀": 2983,
   "揃": 2984,
   "揄": 2985,
   "揆": 2986,
   "揉": 2987,
   "揍": 2988,
   "描": 2989,
   "提": 2990,
   "插": 2991,
   "揖": 2992,
   "揚": 2993,
   "換": 2994,
   "握": 2995,
   "揣": 2996,
   "揩": 2997,
   "揪": 2998,
   "揭": 2999,
   "揮": 3000,
   "援": 3001,
   "揶": 3002,
   "揸": 3003,
   "揹": 3004,
   "揽": 3005,
   "搀": 3006,
   "搁": 3007,
   "搂": 3008,
   "搅": 3009,
   "損": 3010,
   "搏": 3011,
   "搐": 3012,
   "搓": 3013,
   "搔": 3014,
   "搖": 3015,
   "搗": 3016,
   "搜": 3017,
   "搞": 3018,
   "搡": 3019,
   "搪": 3020,
   "搬": 3021,
   "搭": 3022,
   "搵": 3023,
   "搶": 3024,
   "携": 3025,
   "搽": 3026,
   "摀": 3027,
   "摁": 3028,
   "摄": 3029,
   "摆": 3030,
   "摇": 3031,
   "摈": 3032,
   "摊": 3033,
   "摒": 3034,
   "摔": 3035,
   "摘": 3036,
   "摞": 3037,
   "摟": 3038,
   "摧": 3039,
   "摩": 3040,
   "摯": 3041,
   "摳": 3042,
   "摸": 3043,
   "摹": 3044,
   "摺": 3045,
   "摻": 3046,
   "撂": 3047,
   "撃": 3048,
   "撅": 3049,
   "撇": 3050,
   "撈": 3051,
   "撐": 3052,
   "撑": 3053,
   "撒": 3054,
   "撓": 3055,
   "撕": 3056,
   "撚": 3057,
   "撞": 3058,
   "撤": 3059,
   "撥": 3060,
   "撩": 3061,
   "撫": 3062,
   "撬": 3063,
   "播": 3064,
   "撮": 3065,
   "撰": 3066,
   "撲": 3067,
   "撵": 3068,
   "撷": 3069,
   "撸": 3070,
   "撻": 3071,
   "撼": 3072,
   "撿": 3073,
   "擀": 3074,
   "擁": 3075,
   "擂": 3076,
   "擄": 3077,
   "擅": 3078,
   "擇": 3079,
   "擊": 3080,
   "擋": 3081,
   "操": 3082,
   "擎": 3083,
   "擒": 3084,
   "擔": 3085,
   "擘": 3086,
   "據": 3087,
   "擞": 3088,
   "擠": 3089,
   "擡": 3090,
   "擢": 3091,
   "擦": 3092,
   "擬": 3093,
   "擰": 3094,
   "擱": 3095,
   "擲": 3096,
   "擴": 3097,
   "擷": 3098,
   "擺": 3099,
   "擼": 3100,
   "擾": 3101,
   "攀": 3102,
   "攏": 3103,
   "攒": 3104,
   "攔": 3105,
   "攘": 3106,
   "攙": 3107,
   "攜": 3108,
   "攝": 3109,
   "攞": 3110,
   "攢": 3111,
   "攣": 3112,
   "攤": 3113,
   "攥": 3114,
   "攪": 3115,
   "攫": 3116,
   "攬": 3117,
   "支": 3118,
   "收": 3119,
   "攸": 3120,
   "改": 3121,
   "攻": 3122,
   "放": 3123,
   "政": 3124,
   "故": 3125,
   "效": 3126,
   "敌": 3127,
   "敍": 3128,
   "敎": 3129,
   "敏": 3130,
   "救": 3131,
   "敕": 3132,
   "敖": 3133,
   "敗": 3134,
   "敘": 3135,
   "教": 3136,
   "敛": 3137,
   "敝": 3138,
   "敞": 3139,
   "敢": 3140,
   "散": 3141,
   "敦": 3142,
   "敬": 3143,
   "数": 3144,
   "敲": 3145,
   "整": 3146,
   "敵": 3147,
   "敷": 3148,
   "數": 3149,
   "斂": 3150,
   "斃": 3151,
   "文": 3152,
   "斋": 3153,
   "斌": 3154,
   "斎": 3155,
   "斐": 3156,
   "斑": 3157,
   "斓": 3158,
   "斗": 3159,
   "料": 3160,
   "斛": 3161,
   "斜": 3162,
   "斟": 3163,
   "斡": 3164,
   "斤": 3165,
   "斥": 3166,
   "斧": 3167,
   "斩": 3168,
   "斫": 3169,
   "斬": 3170,
   "断": 3171,
   "斯": 3172,
   "新": 3173,
   "斷": 3174,
   "方": 3175,
   "於": 3176,
   "施": 3177,
   "旁": 3178,
   "旃": 3179,
   "旅": 3180,
   "旋": 3181,
   "旌": 3182,
   "旎": 3183,
   "族": 3184,
   "旖": 3185,
   "旗": 3186,
   "无": 3187,
   "既": 3188,
   "日": 3189,
   "旦": 3190,
   "旧": 3191,
   "旨": 3192,
   "早": 3193,
   "旬": 3194,
   "旭": 3195,
   "旮": 3196,
   "旱": 3197,
   "时": 3198,
   "旷": 3199,
   "旺": 3200,
   "旻": 3201,
   "昀": 3202,
   "昂": 3203,
   "昆": 3204,
   "昇": 3205,
   "昉": 3206,
   "昊": 3207,
   "昌": 3208,
   "明": 3209,
   "昏": 3210,
   "易": 3211,
   "昔": 3212,
   "昕": 3213,
   "昙": 3214,
   "星": 3215,
   "映": 3216,
   "春": 3217,
   "昧": 3218,
   "昨": 3219,
   "昭": 3220,
   "是": 3221,
   "昱": 3222,
   "昴": 3223,
   "昵": 3224,
   "昶": 3225,
   "昼": 3226,
   "显": 3227,
   "晁": 3228,
   "時": 3229,
   "晃": 3230,
   "晉": 3231,
   "晋": 3232,
   "晌": 3233,
   "晏": 3234,
   "晒": 3235,
   "晓": 3236,
   "晔": 3237,
   "晕": 3238,
   "晖": 3239,
   "晗": 3240,
   "晚": 3241,
   "晝": 3242,
   "晞": 3243,
   "晟": 3244,
   "晤": 3245,
   "晦": 3246,
   "晨": 3247,
   "晩": 3248,
   "普": 3249,
   "景": 3250,
   "晰": 3251,
   "晴": 3252,
   "晶": 3253,
   "晷": 3254,
   "智": 3255,
   "晾": 3256,
   "暂": 3257,
   "暄": 3258,
   "暇": 3259,
   "暈": 3260,
   "暉": 3261,
   "暌": 3262,
   "暐": 3263,
   "暑": 3264,
   "暖": 3265,
   "暗": 3266,
   "暝": 3267,
   "暢": 3268,
   "暧": 3269,
   "暨": 3270,
   "暫": 3271,
   "暮": 3272,
   "暱": 3273,
   "暴": 3274,
   "暸": 3275,
   "暹": 3276,
   "曄": 3277,
   "曆": 3278,
   "曇": 3279,
   "曉": 3280,
   "曖": 3281,
   "曙": 3282,
   "曜": 3283,
   "曝": 3284,
   "曠": 3285,
   "曦": 3286,
   "曬": 3287,
   "曰": 3288,
   "曲": 3289,
   "曳": 3290,
   "更": 3291,
   "書": 3292,
   "曹": 3293,
   "曼": 3294,
   "曾": 3295,
   "替": 3296,
   "最": 3297,
   "會": 3298,
   "月": 3299,
   "有": 3300,
   "朋": 3301,
   "服": 3302,
   "朐": 3303,
   "朔": 3304,
   "朕": 3305,
   "朗": 3306,
   "望": 3307,
   "朝": 3308,
   "期": 3309,
   "朦": 3310,
   "朧": 3311,
   "木": 3312,
   "未": 3313,
   "末": 3314,
   "本": 3315,
   "札": 3316,
   "朮": 3317,
   "术": 3318,
   "朱": 3319,
   "朴": 3320,
   "朵": 3321,
   "机": 3322,
   "朽": 3323,
   "杀": 3324,
   "杂": 3325,
   "权": 3326,
   "杆": 3327,
   "杈": 3328,
   "杉": 3329,
   "李": 3330,
   "杏": 3331,
   "材": 3332,
   "村": 3333,
   "杓": 3334,
   "杖": 3335,
   "杜": 3336,
   "杞": 3337,
   "束": 3338,
   "杠": 3339,
   "条": 3340,
   "来": 3341,
   "杨": 3342,
   "杭": 3343,
   "杯": 3344,
   "杰": 3345,
   "東": 3346,
   "杳": 3347,
   "杵": 3348,
   "杷": 3349,
   "杼": 3350,
   "松": 3351,
   "板": 3352,
   "极": 3353,
   "构": 3354,
   "枇": 3355,
   "枉": 3356,
   "枋": 3357,
   "析": 3358,
   "枕": 3359,
   "林": 3360,
   "枚": 3361,
   "果": 3362,
   "枝": 3363,
   "枢": 3364,
   "枣": 3365,
   "枪": 3366,
   "枫": 3367,
   "枭": 3368,
   "枯": 3369,
   "枰": 3370,
   "枱": 3371,
   "枳": 3372,
   "架": 3373,
   "枷": 3374,
   "枸": 3375,
   "柄": 3376,
   "柏": 3377,
   "某": 3378,
   "柑": 3379,
   "柒": 3380,
   "染": 3381,
   "柔": 3382,
   "柘": 3383,
   "柚": 3384,
   "柜": 3385,
   "柞": 3386,
   "柠": 3387,
   "柢": 3388,
   "查": 3389,
   "柩": 3390,
   "柬": 3391,
   "柯": 3392,
   "柱": 3393,
   "柳": 3394,
   "柴": 3395,
   "柵": 3396,
   "査": 3397,
   "柿": 3398,
   "栀": 3399,
   "栃": 3400,
   "栄": 3401,
   "栅": 3402,
   "标": 3403,
   "栈": 3404,
   "栉": 3405,
   "栋": 3406,
   "栎": 3407,
   "栏": 3408,
   "树": 3409,
   "栓": 3410,
   "栖": 3411,
   "栗": 3412,
   "校": 3413,
   "栩": 3414,
   "株": 3415,
   "样": 3416,
   "核": 3417,
   "根": 3418,
   "格": 3419,
   "栽": 3420,
   "栾": 3421,
   "桀": 3422,
   "桁": 3423,
   "桂": 3424,
   "桃": 3425,
   "桅": 3426,
   "框": 3427,
   "案": 3428,
   "桉": 3429,
   "桌": 3430,
   "桎": 3431,
   "桐": 3432,
   "桑": 3433,
   "桓": 3434,
   "桔": 3435,
   "桜": 3436,
   "桠": 3437,
   "桡": 3438,
   "桢": 3439,
   "档": 3440,
   "桥": 3441,
   "桦": 3442,
   "桧": 3443,
   "桨": 3444,
   "桩": 3445,
   "桶": 3446,
   "桿": 3447,
   "梁": 3448,
   "梅": 3449,
   "梆": 3450,
   "梏": 3451,
   "梓": 3452,
   "梗": 3453,
   "條": 3454,
   "梟": 3455,
   "梢": 3456,
   "梦": 3457,
   "梧": 3458,
   "梨": 3459,
   "梭": 3460,
   "梯": 3461,
   "械": 3462,
   "梳": 3463,
   "梵": 3464,
   "梶": 3465,
   "检": 3466,
   "棂": 3467,
   "棄": 3468,
   "棉": 3469,
   "棋": 3470,
   "棍": 3471,
   "棒": 3472,
   "棕": 3473,
   "棗": 3474,
   "棘": 3475,
   "棚": 3476,
   "棟": 3477,
   "棠": 3478,
   "棣": 3479,
   "棧": 3480,
   "森": 3481,
   "棱": 3482,
   "棲": 3483,
   "棵": 3484,
   "棹": 3485,
   "棺": 3486,
   "椁": 3487,
   "椅": 3488,
   "椋": 3489,
   "植": 3490,
   "椎": 3491,
   "椒": 3492,
   "検": 3493,
   "椪": 3494,
   "椭": 3495,
   "椰": 3496,
   "椹": 3497,
   "椽": 3498,
   "椿": 3499,
   "楂": 3500,
   "楊": 3501,
   "楓": 3502,
   "楔": 3503,
   "楚": 3504,
   "楝": 3505,
   "楞": 3506,
   "楠": 3507,
   "楣": 3508,
   "楨": 3509,
   "楫": 3510,
   "業": 3511,
   "楮": 3512,
   "極": 3513,
   "楷": 3514,
   "楸": 3515,
   "楹": 3516,
   "楼": 3517,
   "楽": 3518,
   "概": 3519,
   "榄": 3520,
   "榆": 3521,
   "榈": 3522,
   "榉": 3523,
   "榔": 3524,
   "榕": 3525,
   "榖": 3526,
   "榛": 3527,
   "榜": 3528,
   "榨": 3529,
   "榫": 3530,
   "榭": 3531,
   "榮": 3532,
   "榱": 3533,
   "榴": 3534,
   "榷": 3535,
   "榻": 3536,
   "槁": 3537,
   "槃": 3538,
   "構": 3539,
   "槌": 3540,
   "槍": 3541,
   "槎": 3542,
   "槐": 3543,
   "槓": 3544,
   "様": 3545,
   "槛": 3546,
   "槟": 3547,
   "槤": 3548,
   "槭": 3549,
   "槲": 3550,
   "槳": 3551,
   "槻": 3552,
   "槽": 3553,
   "槿": 3554,
   "樁": 3555,
   "樂": 3556,
   "樊": 3557,
   "樑": 3558,
   "樓": 3559,
   "標": 3560,
   "樞": 3561,
   "樟": 3562,
   "模": 3563,
   "樣": 3564,
   "権": 3565,
   "横": 3566,
   "樫": 3567,
   "樯": 3568,
   "樱": 3569,
   "樵": 3570,
   "樸": 3571,
   "樹": 3572,
   "樺": 3573,
   "樽": 3574,
   "樾": 3575,
   "橄": 3576,
   "橇": 3577,
   "橋": 3578,
   "橐": 3579,
   "橘": 3580,
   "橙": 3581,
   "機": 3582,
   "橡": 3583,
   "橢": 3584,
   "橫": 3585,
   "橱": 3586,
   "橹": 3587,
   "橼": 3588,
   "檀": 3589,
   "檄": 3590,
   "檎": 3591,
   "檐": 3592,
   "檔": 3593,
   "檗": 3594,
   "檜": 3595,
   "檢": 3596,
   "檬": 3597,
   "檯": 3598,
   "檳": 3599,
   "檸": 3600,
   "檻": 3601,
   "櫃": 3602,
   "櫚": 3603,
   "櫛": 3604,
   "櫥": 3605,
   "櫸": 3606,
   "櫻": 3607,
   "欄": 3608,
   "權": 3609,
   "欒": 3610,
   "欖": 3611,
   "欠": 3612,
   "次": 3613,
   "欢": 3614,
   "欣": 3615,
   "欧": 3616,
   "欲": 3617,
   "欸": 3618,
   "欺": 3619,
   "欽": 3620,
   "款": 3621,
   "歆": 3622,
   "歇": 3623,
   "歉": 3624,
   "歌": 3625,
   "歎": 3626,
   "歐": 3627,
   "歓": 3628,
   "歙": 3629,
   "歛": 3630,
   "歡": 3631,
   "止": 3632,
   "正": 3633,
   "此": 3634,
   "步": 3635,
   "武": 3636,
   "歧": 3637,
   "歩": 3638,
   "歪": 3639,
   "歯": 3640,
   "歲": 3641,
   "歳": 3642,
   "歴": 3643,
   "歷": 3644,
   "歸": 3645,
   "歹": 3646,
   "死": 3647,
   "歼": 3648,
   "殁": 3649,
   "殃": 3650,
   "殆": 3651,
   "殇": 3652,
   "殉": 3653,
   "殊": 3654,
   "残": 3655,
   "殒": 3656,
   "殓": 3657,
   "殖": 3658,
   "殘": 3659,
   "殞": 3660,
   "殡": 3661,
   "殤": 3662,
   "殭": 3663,
   "殯": 3664,
   "殲": 3665,
   "殴": 3666,
   "段": 3667,
   "殷": 3668,
   "殺": 3669,
   "殼": 3670,
   "殿": 3671,
   "毀": 3672,
   "毁": 3673,
   "毂": 3674,
   "毅": 3675,
   "毆": 3676,
   "毋": 3677,
   "母": 3678,
   "毎": 3679,
   "每": 3680,
   "毒": 3681,
   "毓": 3682,
   "比": 3683,
   "毕": 3684,
   "毗": 3685,
   "毘": 3686,
   "毙": 3687,
   "毛": 3688,
   "毡": 3689,
   "毫": 3690,
   "毯": 3691,
   "毽": 3692,
   "氈": 3693,
   "氏": 3694,
   "氐": 3695,
   "民": 3696,
   "氓": 3697,
   "气": 3698,
   "氖": 3699,
   "気": 3700,
   "氙": 3701,
   "氛": 3702,
   "氟": 3703,
   "氡": 3704,
   "氢": 3705,
   "氣": 3706,
   "氤": 3707,
   "氦": 3708,
   "氧": 3709,
   "氨": 3710,
   "氪": 3711,
   "氫": 3712,
   "氮": 3713,
   "氯": 3714,
   "氰": 3715,
   "氲": 3716,
   "水": 3717,
   "氷": 3718,
   "永": 3719,
   "氹": 3720,
   "氾": 3721,
   "汀": 3722,
   "汁": 3723,
   "求": 3724,
   "汆": 3725,
   "汇": 3726,
   "汉": 3727,
   "汎": 3728,
   "汐": 3729,
   "汕": 3730,
   "汗": 3731,
   "汙": 3732,
   "汛": 3733,
   "汝": 3734,
   "汞": 3735,
   "江": 3736,
   "池": 3737,
   "污": 3738,
   "汤": 3739,
   "汨": 3740,
   "汩": 3741,
   "汪": 3742,
   "汰": 3743,
   "汲": 3744,
   "汴": 3745,
   "汶": 3746,
   "汹": 3747,
   "決": 3748,
   "汽": 3749,
   "汾": 3750,
   "沁": 3751,
   "沂": 3752,
   "沃": 3753,
   "沅": 3754,
   "沈": 3755,
   "沉": 3756,
   "沌": 3757,
   "沏": 3758,
   "沐": 3759,
   "沒": 3760,
   "沓": 3761,
   "沖": 3762,
   "沙": 3763,
   "沛": 3764,
   "沟": 3765,
   "没": 3766,
   "沢": 3767,
   "沣": 3768,
   "沥": 3769,
   "沦": 3770,
   "沧": 3771,
   "沪": 3772,
   "沫": 3773,
   "沭": 3774,
   "沮": 3775,
   "沱": 3776,
   "河": 3777,
   "沸": 3778,
   "油": 3779,
   "治": 3780,
   "沼": 3781,
   "沽": 3782,
   "沾": 3783,
   "沿": 3784,
   "況": 3785,
   "泄": 3786,
   "泉": 3787,
   "泊": 3788,
   "泌": 3789,
   "泓": 3790,
   "法": 3791,
   "泗": 3792,
   "泛": 3793,
   "泞": 3794,
   "泠": 3795,
   "泡": 3796,
   "波": 3797,
   "泣": 3798,
   "泥": 3799,
   "注": 3800,
   "泪": 3801,
   "泫": 3802,
   "泮": 3803,
   "泯": 3804,
   "泰": 3805,
   "泱": 3806,
   "泳": 3807,
   "泵": 3808,
   "泷": 3809,
   "泸": 3810,
   "泻": 3811,
   "泼": 3812,
   "泽": 3813,
   "泾": 3814,
   "洁": 3815,
   "洄": 3816,
   "洋": 3817,
   "洒": 3818,
   "洗": 3819,
   "洙": 3820,
   "洛": 3821,
   "洞": 3822,
   "津": 3823,
   "洩": 3824,
   "洪": 3825,
   "洮": 3826,
   "洱": 3827,
   "洲": 3828,
   "洵": 3829,
   "洶": 3830,
   "洸": 3831,
   "洹": 3832,
   "活": 3833,
   "洼": 3834,
   "洽": 3835,
   "派": 3836,
   "流": 3837,
   "浃": 3838,
   "浄": 3839,
   "浅": 3840,
   "浆": 3841,
   "浇": 3842,
   "浊": 3843,
   "测": 3844,
   "济": 3845,
   "浏": 3846,
   "浑": 3847,
   "浒": 3848,
   "浓": 3849,
   "浔": 3850,
   "浙": 3851,
   "浚": 3852,
   "浜": 3853,
   "浣": 3854,
   "浦": 3855,
   "浩": 3856,
   "浪": 3857,
   "浬": 3858,
   "浮": 3859,
   "浯": 3860,
   "浴": 3861,
   "海": 3862,
   "浸": 3863,
   "涂": 3864,
   "涅": 3865,
   "涇": 3866,
   "消": 3867,
   "涉": 3868,
   "涌": 3869,
   "涎": 3870,
   "涓": 3871,
   "涔": 3872,
   "涕": 3873,
   "涙": 3874,
   "涛": 3875,
   "涝": 3876,
   "涞": 3877,
   "涟": 3878,
   "涠": 3879,
   "涡": 3880,
   "涣": 3881,
   "涤": 3882,
   "润": 3883,
   "涧": 3884,
   "涨": 3885,
   "涩": 3886,
   "涪": 3887,
   "涮": 3888,
   "涯": 3889,
   "液": 3890,
   "涵": 3891,
   "涸": 3892,
   "涼": 3893,
   "涿": 3894,
   "淀": 3895,
   "淄": 3896,
   "淅": 3897,
   "淆": 3898,
   "淇": 3899,
   "淋": 3900,
   "淌": 3901,
   "淑": 3902,
   "淒": 3903,
   "淖": 3904,
   "淘": 3905,
   "淙": 3906,
   "淚": 3907,
   "淞": 3908,
   "淡": 3909,
   "淤": 3910,
   "淦": 3911,
   "淨": 3912,
   "淩": 3913,
   "淪": 3914,
   "淫": 3915,
   "淬": 3916,
   "淮": 3917,
   "深": 3918,
   "淳": 3919,
   "淵": 3920,
   "混": 3921,
   "淹": 3922,
   "淺": 3923,
   "添": 3924,
   "淼": 3925,
   "清": 3926,
   "済": 3927,
   "渉": 3928,
   "渊": 3929,
   "渋": 3930,
   "渍": 3931,
   "渎": 3932,
   "渐": 3933,
   "渔": 3934,
   "渗": 3935,
   "渙": 3936,
   "渚": 3937,
   "減": 3938,
   "渝": 3939,
   "渠": 3940,
   "渡": 3941,
   "渣": 3942,
   "渤": 3943,
   "渥": 3944,
   "渦": 3945,
   "温": 3946,
   "測": 3947,
   "渭": 3948,
   "港": 3949,
   "渲": 3950,
   "渴": 3951,
   "游": 3952,
   "渺": 3953,
   "渾": 3954,
   "湃": 3955,
   "湄": 3956,
   "湊": 3957,
   "湍": 3958,
   "湖": 3959,
   "湘": 3960,
   "湛": 3961,
   "湟": 3962,
   "湧": 3963,
   "湫": 3964,
   "湮": 3965,
   "湯": 3966,
   "湳": 3967,
   "湾": 3968,
   "湿": 3969,
   "満": 3970,
   "溃": 3971,
   "溅": 3972,
   "溉": 3973,
   "溏": 3974,
   "源": 3975,
   "準": 3976,
   "溜": 3977,
   "溝": 3978,
   "溟": 3979,
   "溢": 3980,
   "溥": 3981,
   "溧": 3982,
   "溪": 3983,
   "溫": 3984,
   "溯": 3985,
   "溱": 3986,
   "溴": 3987,
   "溶": 3988,
   "溺": 3989,
   "溼": 3990,
   "滁": 3991,
   "滂": 3992,
   "滄": 3993,
   "滅": 3994,
   "滇": 3995,
   "滋": 3996,
   "滌": 3997,
   "滑": 3998,
   "滓": 3999,
   "滔": 4000,
   "滕": 4001,
   "滙": 4002,
   "滚": 4003,
   "滝": 4004,
   "滞": 4005,
   "滟": 4006,
   "满": 4007,
   "滢": 4008,
   "滤": 4009,
   "滥": 4010,
   "滦": 4011,
   "滨": 4012,
   "滩": 4013,
   "滬": 4014,
   "滯": 4015,
   "滲": 4016,
   "滴": 4017,
   "滷": 4018,
   "滸": 4019,
   "滾": 4020,
   "滿": 4021,
   "漁": 4022,
   "漂": 4023,
   "漆": 4024,
   "漉": 4025,
   "漏": 4026,
   "漓": 4027,
   "演": 4028,
   "漕": 4029,
   "漠": 4030,
   "漢": 4031,
   "漣": 4032,
   "漩": 4033,
   "漪": 4034,
   "漫": 4035,
   "漬": 4036,
   "漯": 4037,
   "漱": 4038,
   "漲": 4039,
   "漳": 4040,
   "漸": 4041,
   "漾": 4042,
   "漿": 4043,
   "潆": 4044,
   "潇": 4045,
   "潋": 4046,
   "潍": 4047,
   "潑": 4048,
   "潔": 4049,
   "潘": 4050,
   "潛": 4051,
   "潜": 4052,
   "潞": 4053,
   "潟": 4054,
   "潢": 4055,
   "潤": 4056,
   "潦": 4057,
   "潧": 4058,
   "潭": 4059,
   "潮": 4060,
   "潰": 4061,
   "潴": 4062,
   "潸": 4063,
   "潺": 4064,
   "潼": 4065,
   "澀": 4066,
   "澄": 4067,
   "澆": 4068,
   "澈": 4069,
   "澍": 4070,
   "澎": 4071,
   "澗": 4072,
   "澜": 4073,
   "澡": 4074,
   "澤": 4075,
   "澧": 4076,
   "澱": 4077,
   "澳": 4078,
   "澹": 4079,
   "激": 4080,
   "濁": 4081,
   "濂": 4082,
   "濃": 4083,
   "濑": 4084,
   "濒": 4085,
   "濕": 4086,
   "濘": 4087,
   "濛": 4088,
   "濟": 4089,
   "濠": 4090,
   "濡": 4091,
   "濤": 4092,
   "濫": 4093,
   "濬": 4094,
   "濮": 4095,
   "濯": 4096,
   "濱": 4097,
   "濺": 4098,
   "濾": 4099,
   "瀅": 4100,
   "瀆": 4101,
   "瀉": 4102,
   "瀋": 4103,
   "瀏": 4104,
   "瀑": 4105,
   "瀕": 4106,
   "瀘": 4107,
   "瀚": 4108,
   "瀛": 4109,
   "瀝": 4110,
   "瀞": 4111,
   "瀟": 4112,
   "瀧": 4113,
   "瀨": 4114,
   "瀬": 4115,
   "瀰": 4116,
   "瀾": 4117,
   "灌": 4118,
   "灏": 4119,
   "灑": 4120,
   "灘": 4121,
   "灝": 4122,
   "灞": 4123,
   "灣": 4124,
   "火": 4125,
   "灬": 4126,
   "灭": 4127,
   "灯": 4128,
   "灰": 4129,
   "灵": 4130,
   "灶": 4131,
   "灸": 4132,
   "灼": 4133,
   "災": 4134,
   "灾": 4135,
   "灿": 4136,
   "炀": 4137,
   "炁": 4138,
   "炅": 4139,
   "炉": 4140,
   "炊": 4141,
   "炎": 4142,
   "炒": 4143,
   "炔": 4144,
   "炕": 4145,
   "炖": 4146,
   "炙": 4147,
   "炜": 4148,
   "炫": 4149,
   "炬": 4150,
   "炭": 4151,
   "炮": 4152,
   "炯": 4153,
   "炳": 4154,
   "炷": 4155,
   "炸": 4156,
   "点": 4157,
   "為": 4158,
   "炼": 4159,
   "炽": 4160,
   "烁": 4161,
   "烂": 4162,
   "烃": 4163,
   "烈": 4164,
   "烊": 4165,
   "烏": 4166,
   "烘": 4167,
   "烙": 4168,
   "烛": 4169,
   "烟": 4170,
   "烤": 4171,
   "烦": 4172,
   "烧": 4173,
   "烨": 4174,
   "烩": 4175,
   "烫": 4176,
   "烬": 4177,
   "热": 4178,
   "烯": 4179,
   "烷": 4180,
   "烹": 4181,
   "烽": 4182,
   "焉": 4183,
   "焊": 4184,
   "焕": 4185,
   "焖": 4186,
   "焗": 4187,
   "焘": 4188,
   "焙": 4189,
   "焚": 4190,
   "焜": 4191,
   "無": 4192,
   "焦": 4193,
   "焯": 4194,
   "焰": 4195,
   "焱": 4196,
   "然": 4197,
   "焼": 4198,
   "煅": 4199,
   "煉": 4200,
   "煊": 4201,
   "煌": 4202,
   "煎": 4203,
   "煒": 4204,
   "煖": 4205,
   "煙": 4206,
   "煜": 4207,
   "煞": 4208,
   "煤": 4209,
   "煥": 4210,
   "煦": 4211,
   "照": 4212,
   "煨": 4213,
   "煩": 4214,
   "煮": 4215,
   "煲": 4216,
   "煸": 4217,
   "煽": 4218,
   "熄": 4219,
   "熊": 4220,
   "熏": 4221,
   "熒": 4222,
   "熔": 4223,
   "熙": 4224,
   "熟": 4225,
   "熠": 4226,
   "熨": 4227,
   "熬": 4228,
   "熱": 4229,
   "熵": 4230,
   "熹": 4231,
   "熾": 4232,
   "燁": 4233,
   "燃": 4234,
   "燄": 4235,
   "燈": 4236,
   "燉": 4237,
   "燊": 4238,
   "燎": 4239,
   "燒": 4240,
   "燔": 4241,
   "燕": 4242,
   "燙": 4243,
   "燜": 4244,
   "營": 4245,
   "燥": 4246,
   "燦": 4247,
   "燧": 4248,
   "燭": 4249,
   "燮": 4250,
   "燴": 4251,
   "燻": 4252,
   "燼": 4253,
   "燿": 4254,
   "爆": 4255,
   "爍": 4256,
   "爐": 4257,
   "爛": 4258,
   "爪": 4259,
   "爬": 4260,
   "爭": 4261,
   "爰": 4262,
   "爱": 4263,
   "爲": 4264,
   "爵": 4265,
   "父": 4266,
   "爷": 4267,
   "爸": 4268,
   "爹": 4269,
   "爺": 4270,
   "爻": 4271,
   "爽": 4272,
   "爾": 4273,
   "牆": 4274,
   "片": 4275,
   "版": 4276,
   "牌": 4277,
   "牍": 4278,
   "牒": 4279,
   "牙": 4280,
   "牛": 4281,
   "牝": 4282,
   "牟": 4283,
   "牠": 4284,
   "牡": 4285,
   "牢": 4286,
   "牦": 4287,
   "牧": 4288,
   "物": 4289,
   "牯": 4290,
   "牲": 4291,
   "牴": 4292,
   "牵": 4293,
   "特": 4294,
   "牺": 4295,
   "牽": 4296,
   "犀": 4297,
   "犁": 4298,
   "犄": 4299,
   "犊": 4300,
   "犍": 4301,
   "犒": 4302,
   "犢": 4303,
   "犧": 4304,
   "犬": 4305,
   "犯": 4306,
   "状": 4307,
   "犷": 4308,
   "犸": 4309,
   "犹": 4310,
   "狀": 4311,
   "狂": 4312,
   "狄": 4313,
   "狈": 4314,
   "狎": 4315,
   "狐": 4316,
   "狒": 4317,
   "狗": 4318,
   "狙": 4319,
   "狞": 4320,
   "狠": 4321,
   "狡": 4322,
   "狩": 4323,
   "独": 4324,
   "狭": 4325,
   "狮": 4326,
   "狰": 4327,
   "狱": 4328,
   "狸": 4329,
   "狹": 4330,
   "狼": 4331,
   "狽": 4332,
   "猎": 4333,
   "猕": 4334,
   "猖": 4335,
   "猗": 4336,
   "猙": 4337,
   "猛": 4338,
   "猜": 4339,
   "猝": 4340,
   "猥": 4341,
   "猩": 4342,
   "猪": 4343,
   "猫": 4344,
   "猬": 4345,
   "献": 4346,
   "猴": 4347,
   "猶": 4348,
   "猷": 4349,
   "猾": 4350,
   "猿": 4351,
   "獄": 4352,
   "獅": 4353,
   "獎": 4354,
   "獐": 4355,
   "獒": 4356,
   "獗": 4357,
   "獠": 4358,
   "獣": 4359,
   "獨": 4360,
   "獭": 4361,
   "獰": 4362,
   "獲": 4363,
   "獵": 4364,
   "獷": 4365,
   "獸": 4366,
   "獺": 4367,
   "獻": 4368,
   "獼": 4369,
   "獾": 4370,
   "玄": 4371,
   "率": 4372,
   "玉": 4373,
   "王": 4374,
   "玑": 4375,
   "玖": 4376,
   "玛": 4377,
   "玟": 4378,
   "玠": 4379,
   "玥": 4380,
   "玩": 4381,
   "玫": 4382,
   "玮": 4383,
   "环": 4384,
   "现": 4385,
   "玲": 4386,
   "玳": 4387,
   "玷": 4388,
   "玺": 4389,
   "玻": 4390,
   "珀": 4391,
   "珂": 4392,
   "珅": 4393,
   "珈": 4394,
   "珉": 4395,
   "珊": 4396,
   "珍": 4397,
   "珏": 4398,
   "珐": 4399,
   "珑": 4400,
   "珙": 4401,
   "珞": 4402,
   "珠": 4403,
   "珣": 4404,
   "珥": 4405,
   "珩": 4406,
   "珪": 4407,
   "班": 4408,
   "珮": 4409,
   "珲": 4410,
   "珺": 4411,
   "現": 4412,
   "球": 4413,
   "琅": 4414,
   "理": 4415,
   "琇": 4416,
   "琉": 4417,
   "琊": 4418,
   "琍": 4419,
   "琏": 4420,
   "琐": 4421,
   "琛": 4422,
   "琢": 4423,
   "琥": 4424,
   "琦": 4425,
   "琨": 4426,
   "琪": 4427,
   "琬": 4428,
   "琮": 4429,
   "琰": 4430,
   "琲": 4431,
   "琳": 4432,
   "琴": 4433,
   "琵": 4434,
   "琶": 4435,
   "琺": 4436,
   "琼": 4437,
   "瑀": 4438,
   "瑁": 4439,
   "瑄": 4440,
   "瑋": 4441,
   "瑕": 4442,
   "瑗": 4443,
   "瑙": 4444,
   "瑚": 4445,
   "瑛": 4446,
   "瑜": 4447,
   "瑞": 4448,
   "瑟": 4449,
   "瑠": 4450,
   "瑣": 4451,
   "瑤": 4452,
   "瑩": 4453,
   "瑪": 4454,
   "瑯": 4455,
   "瑰": 4456,
   "瑶": 4457,
   "瑾": 4458,
   "璀": 4459,
   "璁": 4460,
   "璃": 4461,
   "璇": 4462,
   "璉": 4463,
   "璋": 4464,
   "璎": 4465,
   "璐": 4466,
   "璜": 4467,
   "璞": 4468,
   "璟": 4469,
   "璧": 4470,
   "璨": 4471,
   "環": 4472,
   "璽": 4473,
   "璿": 4474,
   "瓊": 4475,
   "瓏": 4476,
   "瓒": 4477,
   "瓜": 4478,
   "瓢": 4479,
   "瓣": 4480,
   "瓤": 4481,
   "瓦": 4482,
   "瓮": 4483,
   "瓯": 4484,
   "瓴": 4485,
   "瓶": 4486,
   "瓷": 4487,
   "甄": 4488,
   "甌": 4489,
   "甕": 4490,
   "甘": 4491,
   "甙": 4492,
   "甚": 4493,
   "甜": 4494,
   "生": 4495,
   "產": 4496,
   "産": 4497,
   "甥": 4498,
   "甦": 4499,
   "用": 4500,
   "甩": 4501,
   "甫": 4502,
   "甬": 4503,
   "甭": 4504,
   "甯": 4505,
   "田": 4506,
   "由": 4507,
   "甲": 4508,
   "申": 4509,
   "电": 4510,
   "男": 4511,
   "甸": 4512,
   "町": 4513,
   "画": 4514,
   "甾": 4515,
   "畀": 4516,
   "畅": 4517,
   "界": 4518,
   "畏": 4519,
   "畑": 4520,
   "畔": 4521,
   "留": 4522,
   "畜": 4523,
   "畝": 4524,
   "畢": 4525,
   "略": 4526,
   "畦": 4527,
   "番": 4528,
   "畫": 4529,
   "異": 4530,
   "畲": 4531,
   "畳": 4532,
   "畴": 4533,
   "當": 4534,
   "畸": 4535,
   "畹": 4536,
   "畿": 4537,
   "疆": 4538,
   "疇": 4539,
   "疊": 4540,
   "疏": 4541,
   "疑": 4542,
   "疔": 4543,
   "疖": 4544,
   "疗": 4545,
   "疙": 4546,
   "疚": 4547,
   "疝": 4548,
   "疟": 4549,
   "疡": 4550,
   "疣": 4551,
   "疤": 4552,
   "疥": 4553,
   "疫": 4554,
   "疮": 4555,
   "疯": 4556,
   "疱": 4557,
   "疲": 4558,
   "疳": 4559,
   "疵": 4560,
   "疸": 4561,
   "疹": 4562,
   "疼": 4563,
   "疽": 4564,
   "疾": 4565,
   "痂": 4566,
   "病": 4567,
   "症": 4568,
   "痈": 4569,
   "痉": 4570,
   "痊": 4571,
   "痍": 4572,
   "痒": 4573,
   "痔": 4574,
   "痕": 4575,
   "痘": 4576,
   "痙": 4577,
   "痛": 4578,
   "痞": 4579,
   "痠": 4580,
   "痢": 4581,
   "痣": 4582,
   "痤": 4583,
   "痧": 4584,
   "痨": 4585,
   "痪": 4586,
   "痫": 4587,
   "痰": 4588,
   "痱": 4589,
   "痴": 4590,
   "痹": 4591,
   "痺": 4592,
   "痼": 4593,
   "痿": 4594,
   "瘀": 4595,
   "瘁": 4596,
   "瘋": 4597,
   "瘍": 4598,
   "瘓": 4599,
   "瘘": 4600,
   "瘙": 4601,
   "瘟": 4602,
   "瘠": 4603,
   "瘡": 4604,
   "瘢": 4605,
   "瘤": 4606,
   "瘦": 4607,
   "瘧": 4608,
   "瘩": 4609,
   "瘪": 4610,
   "瘫": 4611,
   "瘴": 4612,
   "瘸": 4613,
   "瘾": 4614,
   "療": 4615,
   "癇": 4616,
   "癌": 4617,
   "癒": 4618,
   "癖": 4619,
   "癜": 4620,
   "癞": 4621,
   "癡": 4622,
   "癢": 4623,
   "癣": 4624,
   "癥": 4625,
   "癫": 4626,
   "癬": 4627,
   "癮": 4628,
   "癱": 4629,
   "癲": 4630,
   "癸": 4631,
   "発": 4632,
   "登": 4633,
   "發": 4634,
   "白": 4635,
   "百": 4636,
   "皂": 4637,
   "的": 4638,
   "皆": 4639,
   "皇": 4640,
   "皈": 4641,
   "皋": 4642,
   "皎": 4643,
   "皑": 4644,
   "皓": 4645,
   "皖": 4646,
   "皙": 4647,
   "皚": 4648,
   "皮": 4649,
   "皰": 4650,
   "皱": 4651,
   "皴": 4652,
   "皺": 4653,
   "皿": 4654,
   "盂": 4655,
   "盃": 4656,
   "盅": 4657,
   "盆": 4658,
   "盈": 4659,
   "益": 4660,
   "盎": 4661,
   "盏": 4662,
   "盐": 4663,
   "监": 4664,
   "盒": 4665,
   "盔": 4666,
   "盖": 4667,
   "盗": 4668,
   "盘": 4669,
   "盛": 4670,
   "盜": 4671,
   "盞": 4672,
   "盟": 4673,
   "盡": 4674,
   "監": 4675,
   "盤": 4676,
   "盥": 4677,
   "盧": 4678,
   "盪": 4679,
   "目": 4680,
   "盯": 4681,
   "盱": 4682,
   "盲": 4683,
   "直": 4684,
   "相": 4685,
   "盹": 4686,
   "盼": 4687,
   "盾": 4688,
   "省": 4689,
   "眈": 4690,
   "眉": 4691,
   "看": 4692,
   "県": 4693,
   "眙": 4694,
   "眞": 4695,
   "真": 4696,
   "眠": 4697,
   "眦": 4698,
   "眨": 4699,
   "眩": 4700,
   "眯": 4701,
   "眶": 4702,
   "眷": 4703,
   "眸": 4704,
   "眺": 4705,
   "眼": 4706,
   "眾": 4707,
   "着": 4708,
   "睁": 4709,
   "睇": 4710,
   "睏": 4711,
   "睐": 4712,
   "睑": 4713,
   "睛": 4714,
   "睜": 4715,
   "睞": 4716,
   "睡": 4717,
   "睢": 4718,
   "督": 4719,
   "睥": 4720,
   "睦": 4721,
   "睨": 4722,
   "睪": 4723,
   "睫": 4724,
   "睬": 4725,
   "睹": 4726,
   "睽": 4727,
   "睾": 4728,
   "睿": 4729,
   "瞄": 4730,
   "瞅": 4731,
   "瞇": 4732,
   "瞋": 4733,
   "瞌": 4734,
   "瞎": 4735,
   "瞑": 4736,
   "瞒": 4737,
   "瞓": 4738,
   "瞞": 4739,
   "瞟": 4740,
   "瞠": 4741,
   "瞥": 4742,
   "瞧": 4743,
   "瞩": 4744,
   "瞪": 4745,
   "瞬": 4746,
   "瞭": 4747,
   "瞰": 4748,
   "瞳": 4749,
   "瞻": 4750,
   "瞼": 4751,
   "瞿": 4752,
   "矇": 4753,
   "矍": 4754,
   "矗": 4755,
   "矚": 4756,
   "矛": 4757,
   "矜": 4758,
   "矢": 4759,
   "矣": 4760,
   "知": 4761,
   "矩": 4762,
   "矫": 4763,
   "短": 4764,
   "矮": 4765,
   "矯": 4766,
   "石": 4767,
   "矶": 4768,
   "矽": 4769,
   "矾": 4770,
   "矿": 4771,
   "码": 4772,
   "砂": 4773,
   "砌": 4774,
   "砍": 4775,
   "砒": 4776,
   "研": 4777,
   "砖": 4778,
   "砗": 4779,
   "砚": 4780,
   "砝": 4781,
   "砣": 4782,
   "砥": 4783,
   "砧": 4784,
   "砭": 4785,
   "砰": 4786,
   "砲": 4787,
   "破": 4788,
   "砷": 4789,
   "砸": 4790,
   "砺": 4791,
   "砼": 4792,
   "砾": 4793,
   "础": 4794,
   "硅": 4795,
   "硐": 4796,
   "硒": 4797,
   "硕": 4798,
   "硝": 4799,
   "硫": 4800,
   "硬": 4801,
   "确": 4802,
   "硯": 4803,
   "硼": 4804,
   "碁": 4805,
   "碇": 4806,
   "碉": 4807,
   "碌": 4808,
   "碍": 4809,
   "碎": 4810,
   "碑": 4811,
   "碓": 4812,
   "碗": 4813,
   "碘": 4814,
   "碚": 4815,
   "碛": 4816,
   "碟": 4817,
   "碣": 4818,
   "碧": 4819,
   "碩": 4820,
   "碰": 4821,
   "碱": 4822,
   "碳": 4823,
   "碴": 4824,
   "確": 4825,
   "碼": 4826,
   "碾": 4827,
   "磁": 4828,
   "磅": 4829,
   "磊": 4830,
   "磋": 4831,
   "磐": 4832,
   "磕": 4833,
   "磚": 4834,
   "磡": 4835,
   "磨": 4836,
   "磬": 4837,
   "磯": 4838,
   "磲": 4839,
   "磷": 4840,
   "磺": 4841,
   "礁": 4842,
   "礎": 4843,
   "礙": 4844,
   "礡": 4845,
   "礦": 4846,
   "礪": 4847,
   "礫": 4848,
   "礴": 4849,
   "示": 4850,
   "礼": 4851,
   "社": 4852,
   "祀": 4853,
   "祁": 4854,
   "祂": 4855,
   "祇": 4856,
   "祈": 4857,
   "祉": 4858,
   "祎": 4859,
   "祐": 4860,
   "祕": 4861,
   "祖": 4862,
   "祗": 4863,
   "祚": 4864,
   "祛": 4865,
   "祜": 4866,
   "祝": 4867,
   "神": 4868,
   "祟": 4869,
   "祠": 4870,
   "祢": 4871,
   "祥": 4872,
   "票": 4873,
   "祭": 4874,
   "祯": 4875,
   "祷": 4876,
   "祸": 4877,
   "祺": 4878,
   "祿": 4879,
   "禀": 4880,
   "禁": 4881,
   "禄": 4882,
   "禅": 4883,
   "禍": 4884,
   "禎": 4885,
   "福": 4886,
   "禛": 4887,
   "禦": 4888,
   "禧": 4889,
   "禪": 4890,
   "禮": 4891,
   "禱": 4892,
   "禹": 4893,
   "禺": 4894,
   "离": 4895,
   "禽": 4896,
   "禾": 4897,
   "禿": 4898,
   "秀": 4899,
   "私": 4900,
   "秃": 4901,
   "秆": 4902,
   "秉": 4903,
   "秋": 4904,
   "种": 4905,
   "科": 4906,
   "秒": 4907,
   "秘": 4908,
   "租": 4909,
   "秣": 4910,
   "秤": 4911,
   "秦": 4912,
   "秧": 4913,
   "秩": 4914,
   "秭": 4915,
   "积": 4916,
   "称": 4917,
   "秸": 4918,
   "移": 4919,
   "秽": 4920,
   "稀": 4921,
   "稅": 4922,
   "程": 4923,
   "稍": 4924,
   "税": 4925,
   "稔": 4926,
   "稗": 4927,
   "稚": 4928,
   "稜": 4929,
   "稞": 4930,
   "稟": 4931,
   "稠": 4932,
   "稣": 4933,
   "種": 4934,
   "稱": 4935,
   "稲": 4936,
   "稳": 4937,
   "稷": 4938,
   "稹": 4939,
   "稻": 4940,
   "稼": 4941,
   "稽": 4942,
   "稿": 4943,
   "穀": 4944,
   "穂": 4945,
   "穆": 4946,
   "穌": 4947,
   "積": 4948,
   "穎": 4949,
   "穗": 4950,
   "穢": 4951,
   "穩": 4952,
   "穫": 4953,
   "穴": 4954,
   "究": 4955,
   "穷": 4956,
   "穹": 4957,
   "空": 4958,
   "穿": 4959,
   "突": 4960,
   "窃": 4961,
   "窄": 4962,
   "窈": 4963,
   "窍": 4964,
   "窑": 4965,
   "窒": 4966,
   "窓": 4967,
   "窕": 4968,
   "窖": 4969,
   "窗": 4970,
   "窘": 4971,
   "窜": 4972,
   "窝": 4973,
   "窟": 4974,
   "窠": 4975,
   "窥": 4976,
   "窦": 4977,
   "窨": 4978,
   "窩": 4979,
   "窪": 4980,
   "窮": 4981,
   "窯": 4982,
   "窺": 4983,
   "窿": 4984,
   "竄": 4985,
   "竅": 4986,
   "竇": 4987,
   "竊": 4988,
   "立": 4989,
   "竖": 4990,
   "站": 4991,
   "竜": 4992,
   "竞": 4993,
   "竟": 4994,
   "章": 4995,
   "竣": 4996,
   "童": 4997,
   "竭": 4998,
   "端": 4999,
   "競": 5000,
   "竹": 5001,
   "竺": 5002,
   "竽": 5003,
   "竿": 5004,
   "笃": 5005,
   "笆": 5006,
   "笈": 5007,
   "笋": 5008,
   "笏": 5009,
   "笑": 5010,
   "笔": 5011,
   "笙": 5012,
   "笛": 5013,
   "笞": 5014,
   "笠": 5015,
   "符": 5016,
   "笨": 5017,
   "第": 5018,
   "笹": 5019,
   "笺": 5020,
   "笼": 5021,
   "筆": 5022,
   "等": 5023,
   "筊": 5024,
   "筋": 5025,
   "筍": 5026,
   "筏": 5027,
   "筐": 5028,
   "筑": 5029,
   "筒": 5030,
   "答": 5031,
   "策": 5032,
   "筛": 5033,
   "筝": 5034,
   "筠": 5035,
   "筱": 5036,
   "筲": 5037,
   "筵": 5038,
   "筷": 5039,
   "筹": 5040,
   "签": 5041,
   "简": 5042,
   "箇": 5043,
   "箋": 5044,
   "箍": 5045,
   "箏": 5046,
   "箐": 5047,
   "箔": 5048,
   "箕": 5049,
   "算": 5050,
   "箝": 5051,
   "管": 5052,
   "箩": 5053,
   "箫": 5054,
   "箭": 5055,
   "箱": 5056,
   "箴": 5057,
   "箸": 5058,
   "節": 5059,
   "篁": 5060,
   "範": 5061,
   "篆": 5062,
   "篇": 5063,
   "築": 5064,
   "篑": 5065,
   "篓": 5066,
   "篙": 5067,
   "篝": 5068,
   "篠": 5069,
   "篡": 5070,
   "篤": 5071,
   "篩": 5072,
   "篪": 5073,
   "篮": 5074,
   "篱": 5075,
   "篷": 5076,
   "簇": 5077,
   "簌": 5078,
   "簍": 5079,
   "簡": 5080,
   "簦": 5081,
   "簧": 5082,
   "簪": 5083,
   "簫": 5084,
   "簷": 5085,
   "簸": 5086,
   "簽": 5087,
   "簾": 5088,
   "簿": 5089,
   "籁": 5090,
   "籃": 5091,
   "籌": 5092,
   "籍": 5093,
   "籐": 5094,
   "籟": 5095,
   "籠": 5096,
   "籤": 5097,
   "籬": 5098,
   "籮": 5099,
   "籲": 5100,
   "米": 5101,
   "类": 5102,
   "籼": 5103,
   "籽": 5104,
   "粄": 5105,
   "粉": 5106,
   "粑": 5107,
   "粒": 5108,
   "粕": 5109,
   "粗": 5110,
   "粘": 5111,
   "粟": 5112,
   "粤": 5113,
   "粥": 5114,
   "粧": 5115,
   "粪": 5116,
   "粮": 5117,
   "粱": 5118,
   "粲": 5119,
   "粳": 5120,
   "粵": 5121,
   "粹": 5122,
   "粼": 5123,
   "粽": 5124,
   "精": 5125,
   "粿": 5126,
   "糅": 5127,
   "糊": 5128,
   "糍": 5129,
   "糕": 5130,
   "糖": 5131,
   "糗": 5132,
   "糙": 5133,
   "糜": 5134,
   "糞": 5135,
   "糟": 5136,
   "糠": 5137,
   "糧": 5138,
   "糬": 5139,
   "糯": 5140,
   "糰": 5141,
   "糸": 5142,
   "系": 5143,
   "糾": 5144,
   "紀": 5145,
   "紂": 5146,
   "約": 5147,
   "紅": 5148,
   "紉": 5149,
   "紊": 5150,
   "紋": 5151,
   "納": 5152,
   "紐": 5153,
   "紓": 5154,
   "純": 5155,
   "紗": 5156,
   "紘": 5157,
   "紙": 5158,
   "級": 5159,
   "紛": 5160,
   "紜": 5161,
   "素": 5162,
   "紡": 5163,
   "索": 5164,
   "紧": 5165,
   "紫": 5166,
   "紮": 5167,
   "累": 5168,
   "細": 5169,
   "紳": 5170,
   "紹": 5171,
   "紺": 5172,
   "終": 5173,
   "絃": 5174,
   "組": 5175,
   "絆": 5176,
   "経": 5177,
   "結": 5178,
   "絕": 5179,
   "絞": 5180,
   "絡": 5181,
   "絢": 5182,
   "給": 5183,
   "絨": 5184,
   "絮": 5185,
   "統": 5186,
   "絲": 5187,
   "絳": 5188,
   "絵": 5189,
   "絶": 5190,
   "絹": 5191,
   "綁": 5192,
   "綏": 5193,
   "綑": 5194,
   "經": 5195,
   "継": 5196,
   "続": 5197,
   "綜": 5198,
   "綠": 5199,
   "綢": 5200,
   "綦": 5201,
   "綫": 5202,
   "綬": 5203,
   "維": 5204,
   "綱": 5205,
   "網": 5206,
   "綴": 5207,
   "綵": 5208,
   "綸": 5209,
   "綺": 5210,
   "綻": 5211,
   "綽": 5212,
   "綾": 5213,
   "綿": 5214,
   "緊": 5215,
   "緋": 5216,
   "総": 5217,
   "緑": 5218,
   "緒": 5219,
   "緘": 5220,
   "線": 5221,
   "緝": 5222,
   "緞": 5223,
   "締": 5224,
   "緣": 5225,
   "編": 5226,
   "緩": 5227,
   "緬": 5228,
   "緯": 5229,
   "練": 5230,
   "緹": 5231,
   "緻": 5232,
   "縁": 5233,
   "縄": 5234,
   "縈": 5235,
   "縛": 5236,
   "縝": 5237,
   "縣": 5238,
   "縫": 5239,
   "縮": 5240,
   "縱": 5241,
   "縴": 5242,
   "縷": 5243,
   "總": 5244,
   "績": 5245,
   "繁": 5246,
   "繃": 5247,
   "繆": 5248,
   "繇": 5249,
   "繋": 5250,
   "織": 5251,
   "繕": 5252,
   "繚": 5253,
   "繞": 5254,
   "繡": 5255,
   "繩": 5256,
   "繪": 5257,
   "繫": 5258,
   "繭": 5259,
   "繳": 5260,
   "繹": 5261,
   "繼": 5262,
   "繽": 5263,
   "纂": 5264,
   "續": 5265,
   "纍": 5266,
   "纏": 5267,
   "纓": 5268,
   "纔": 5269,
   "纖": 5270,
   "纜": 5271,
   "纠": 5272,
   "红": 5273,
   "纣": 5274,
   "纤": 5275,
   "约": 5276,
   "级": 5277,
   "纨": 5278,
   "纪": 5279,
   "纫": 5280,
   "纬": 5281,
   "纭": 5282,
   "纯": 5283,
   "纰": 5284,
   "纱": 5285,
   "纲": 5286,
   "纳": 5287,
   "纵": 5288,
   "纶": 5289,
   "纷": 5290,
   "纸": 5291,
   "纹": 5292,
   "纺": 5293,
   "纽": 5294,
   "纾": 5295,
   "线": 5296,
   "绀": 5297,
   "练": 5298,
   "组": 5299,
   "绅": 5300,
   "细": 5301,
   "织": 5302,
   "终": 5303,
   "绊": 5304,
   "绍": 5305,
   "绎": 5306,
   "经": 5307,
   "绑": 5308,
   "绒": 5309,
   "结": 5310,
   "绔": 5311,
   "绕": 5312,
   "绘": 5313,
   "给": 5314,
   "绚": 5315,
   "绛": 5316,
   "络": 5317,
   "绝": 5318,
   "绞": 5319,
   "统": 5320,
   "绡": 5321,
   "绢": 5322,
   "绣": 5323,
   "绥": 5324,
   "绦": 5325,
   "继": 5326,
   "绩": 5327,
   "绪": 5328,
   "绫": 5329,
   "续": 5330,
   "绮": 5331,
   "绯": 5332,
   "绰": 5333,
   "绳": 5334,
   "维": 5335,
   "绵": 5336,
   "绶": 5337,
   "绷": 5338,
   "绸": 5339,
   "绻": 5340,
   "综": 5341,
   "绽": 5342,
   "绾": 5343,
   "绿": 5344,
   "缀": 5345,
   "缄": 5346,
   "缅": 5347,
   "缆": 5348,
   "缇": 5349,
   "缈": 5350,
   "缉": 5351,
   "缎": 5352,
   "缓": 5353,
   "缔": 5354,
   "缕": 5355,
   "编": 5356,
   "缘": 5357,
   "缙": 5358,
   "缚": 5359,
   "缜": 5360,
   "缝": 5361,
   "缠": 5362,
   "缢": 5363,
   "缤": 5364,
   "缥": 5365,
   "缨": 5366,
   "缩": 5367,
   "缪": 5368,
   "缭": 5369,
   "缮": 5370,
   "缰": 5371,
   "缱": 5372,
   "缴": 5373,
   "缸": 5374,
   "缺": 5375,
   "缽": 5376,
   "罂": 5377,
   "罄": 5378,
   "罌": 5379,
   "罐": 5380,
   "网": 5381,
   "罔": 5382,
   "罕": 5383,
   "罗": 5384,
   "罚": 5385,
   "罡": 5386,
   "罢": 5387,
   "罩": 5388,
   "罪": 5389,
   "置": 5390,
   "罰": 5391,
   "署": 5392,
   "罵": 5393,
   "罷": 5394,
   "罹": 5395,
   "羁": 5396,
   "羅": 5397,
   "羈": 5398,
   "羊": 5399,
   "羌": 5400,
   "美": 5401,
   "羔": 5402,
   "羚": 5403,
   "羞": 5404,
   "羟": 5405,
   "羡": 5406,
   "羣": 5407,
   "群": 5408,
   "羥": 5409,
   "羧": 5410,
   "羨": 5411,
   "義": 5412,
   "羯": 5413,
   "羲": 5414,
   "羸": 5415,
   "羹": 5416,
   "羽": 5417,
   "羿": 5418,
   "翁": 5419,
   "翅": 5420,
   "翊": 5421,
   "翌": 5422,
   "翎": 5423,
   "習": 5424,
   "翔": 5425,
   "翘": 5426,
   "翟": 5427,
   "翠": 5428,
   "翡": 5429,
   "翦": 5430,
   "翩": 5431,
   "翰": 5432,
   "翱": 5433,
   "翳": 5434,
   "翹": 5435,
   "翻": 5436,
   "翼": 5437,
   "耀": 5438,
   "老": 5439,
   "考": 5440,
   "耄": 5441,
   "者": 5442,
   "耆": 5443,
   "耋": 5444,
   "而": 5445,
   "耍": 5446,
   "耐": 5447,
   "耒": 5448,
   "耕": 5449,
   "耗": 5450,
   "耘": 5451,
   "耙": 5452,
   "耦": 5453,
   "耨": 5454,
   "耳": 5455,
   "耶": 5456,
   "耷": 5457,
   "耸": 5458,
   "耻": 5459,
   "耽": 5460,
   "耿": 5461,
   "聂": 5462,
   "聆": 5463,
   "聊": 5464,
   "聋": 5465,
   "职": 5466,
   "聒": 5467,
   "联": 5468,
   "聖": 5469,
   "聘": 5470,
   "聚": 5471,
   "聞": 5472,
   "聪": 5473,
   "聯": 5474,
   "聰": 5475,
   "聲": 5476,
   "聳": 5477,
   "聴": 5478,
   "聶": 5479,
   "職": 5480,
   "聽": 5481,
   "聾": 5482,
   "聿": 5483,
   "肃": 5484,
   "肄": 5485,
   "肅": 5486,
   "肆": 5487,
   "肇": 5488,
   "肉": 5489,
   "肋": 5490,
   "肌": 5491,
   "肏": 5492,
   "肓": 5493,
   "肖": 5494,
   "肘": 5495,
   "肚": 5496,
   "肛": 5497,
   "肝": 5498,
   "肠": 5499,
   "股": 5500,
   "肢": 5501,
   "肤": 5502,
   "肥": 5503,
   "肩": 5504,
   "肪": 5505,
   "肮": 5506,
   "肯": 5507,
   "肱": 5508,
   "育": 5509,
   "肴": 5510,
   "肺": 5511,
   "肽": 5512,
   "肾": 5513,
   "肿": 5514,
   "胀": 5515,
   "胁": 5516,
   "胃": 5517,
   "胄": 5518,
   "胆": 5519,
   "背": 5520,
   "胍": 5521,
   "胎": 5522,
   "胖": 5523,
   "胚": 5524,
   "胛": 5525,
   "胜": 5526,
   "胝": 5527,
   "胞": 5528,
   "胡": 5529,
   "胤": 5530,
   "胥": 5531,
   "胧": 5532,
   "胫": 5533,
   "胭": 5534,
   "胯": 5535,
   "胰": 5536,
   "胱": 5537,
   "胳": 5538,
   "胴": 5539,
   "胶": 5540,
   "胸": 5541,
   "胺": 5542,
   "能": 5543,
   "脂": 5544,
   "脅": 5545,
   "脆": 5546,
   "脇": 5547,
   "脈": 5548,
   "脉": 5549,
   "脊": 5550,
   "脍": 5551,
   "脏": 5552,
   "脐": 5553,
   "脑": 5554,
   "脓": 5555,
   "脖": 5556,
   "脘": 5557,
   "脚": 5558,
   "脛": 5559,
   "脣": 5560,
   "脩": 5561,
   "脫": 5562,
   "脯": 5563,
   "脱": 5564,
   "脲": 5565,
   "脳": 5566,
   "脸": 5567,
   "脹": 5568,
   "脾": 5569,
   "腆": 5570,
   "腈": 5571,
   "腊": 5572,
   "腋": 5573,
   "腌": 5574,
   "腎": 5575,
   "腐": 5576,
   "腑": 5577,
   "腓": 5578,
   "腔": 5579,
   "腕": 5580,
   "腥": 5581,
   "腦": 5582,
   "腩": 5583,
   "腫": 5584,
   "腭": 5585,
   "腮": 5586,
   "腰": 5587,
   "腱": 5588,
   "腳": 5589,
   "腴": 5590,
   "腸": 5591,
   "腹": 5592,
   "腺": 5593,
   "腻": 5594,
   "腼": 5595,
   "腾": 5596,
   "腿": 5597,
   "膀": 5598,
   "膈": 5599,
   "膊": 5600,
   "膏": 5601,
   "膑": 5602,
   "膘": 5603,
   "膚": 5604,
   "膛": 5605,
   "膜": 5606,
   "膝": 5607,
   "膠": 5608,
   "膦": 5609,
   "膨": 5610,
   "膩": 5611,
   "膳": 5612,
   "膺": 5613,
   "膻": 5614,
   "膽": 5615,
   "膾": 5616,
   "膿": 5617,
   "臀": 5618,
   "臂": 5619,
   "臃": 5620,
   "臆": 5621,
   "臉": 5622,
   "臊": 5623,
   "臍": 5624,
   "臓": 5625,
   "臘": 5626,
   "臟": 5627,
   "臣": 5628,
   "臥": 5629,
   "臧": 5630,
   "臨": 5631,
   "自": 5632,
   "臬": 5633,
   "臭": 5634,
   "至": 5635,
   "致": 5636,
   "臺": 5637,
   "臻": 5638,
   "臼": 5639,
   "臾": 5640,
   "舀": 5641,
   "舂": 5642,
   "舅": 5643,
   "舆": 5644,
   "與": 5645,
   "興": 5646,
   "舉": 5647,
   "舊": 5648,
   "舌": 5649,
   "舍": 5650,
   "舎": 5651,
   "舐": 5652,
   "舒": 5653,
   "舔": 5654,
   "舖": 5655,
   "舗": 5656,
   "舛": 5657,
   "舜": 5658,
   "舞": 5659,
   "舟": 5660,
   "航": 5661,
   "舫": 5662,
   "般": 5663,
   "舰": 5664,
   "舱": 5665,
   "舵": 5666,
   "舶": 5667,
   "舷": 5668,
   "舸": 5669,
   "船": 5670,
   "舺": 5671,
   "舾": 5672,
   "艇": 5673,
   "艋": 5674,
   "艘": 5675,
   "艙": 5676,
   "艦": 5677,
   "艮": 5678,
   "良": 5679,
   "艰": 5680,
   "艱": 5681,
   "色": 5682,
   "艳": 5683,
   "艷": 5684,
   "艹": 5685,
   "艺": 5686,
   "艾": 5687,
   "节": 5688,
   "芃": 5689,
   "芈": 5690,
   "芊": 5691,
   "芋": 5692,
   "芍": 5693,
   "芎": 5694,
   "芒": 5695,
   "芙": 5696,
   "芜": 5697,
   "芝": 5698,
   "芡": 5699,
   "芥": 5700,
   "芦": 5701,
   "芩": 5702,
   "芪": 5703,
   "芫": 5704,
   "芬": 5705,
   "芭": 5706,
   "芮": 5707,
   "芯": 5708,
   "花": 5709,
   "芳": 5710,
   "芷": 5711,
   "芸": 5712,
   "芹": 5713,
   "芻": 5714,
   "芽": 5715,
   "芾": 5716,
   "苁": 5717,
   "苄": 5718,
   "苇": 5719,
   "苋": 5720,
   "苍": 5721,
   "苏": 5722,
   "苑": 5723,
   "苒": 5724,
   "苓": 5725,
   "苔": 5726,
   "苕": 5727,
   "苗": 5728,
   "苛": 5729,
   "苜": 5730,
   "苞": 5731,
   "苟": 5732,
   "苡": 5733,
   "苣": 5734,
   "若": 5735,
   "苦": 5736,
   "苫": 5737,
   "苯": 5738,
   "英": 5739,
   "苷": 5740,
   "苹": 5741,
   "苻": 5742,
   "茁": 5743,
   "茂": 5744,
   "范": 5745,
   "茄": 5746,
   "茅": 5747,
   "茉": 5748,
   "茎": 5749,
   "茏": 5750,
   "茗": 5751,
   "茜": 5752,
   "茧": 5753,
   "茨": 5754,
   "茫": 5755,
   "茬": 5756,
   "茭": 5757,
   "茯": 5758,
   "茱": 5759,
   "茲": 5760,
   "茴": 5761,
   "茵": 5762,
   "茶": 5763,
   "茸": 5764,
   "茹": 5765,
   "茼": 5766,
   "荀": 5767,
   "荃": 5768,
   "荆": 5769,
   "草": 5770,
   "荊": 5771,
   "荏": 5772,
   "荐": 5773,
   "荒": 5774,
   "荔": 5775,
   "荖": 5776,
   "荘": 5777,
   "荚": 5778,
   "荞": 5779,
   "荟": 5780,
   "荠": 5781,
   "荡": 5782,
   "荣": 5783,
   "荤": 5784,
   "荥": 5785,
   "荧": 5786,
   "荨": 5787,
   "荪": 5788,
   "荫": 5789,
   "药": 5790,
   "荳": 5791,
   "荷": 5792,
   "荸": 5793,
   "荻": 5794,
   "荼": 5795,
   "荽": 5796,
   "莅": 5797,
   "莆": 5798,
   "莉": 5799,
   "莊": 5800,
   "莎": 5801,
   "莒": 5802,
   "莓": 5803,
   "莖": 5804,
   "莘": 5805,
   "莞": 5806,
   "莠": 5807,
   "莢": 5808,
   "莧": 5809,
   "莪": 5810,
   "莫": 5811,
   "莱": 5812,
   "莲": 5813,
   "莴": 5814,
   "获": 5815,
   "莹": 5816,
   "莺": 5817,
   "莽": 5818,
   "莿": 5819,
   "菀": 5820,
   "菁": 5821,
   "菅": 5822,
   "菇": 5823,
   "菈": 5824,
   "菊": 5825,
   "菌": 5826,
   "菏": 5827,
   "菓": 5828,
   "菖": 5829,
   "菘": 5830,
   "菜": 5831,
   "菟": 5832,
   "菠": 5833,
   "菡": 5834,
   "菩": 5835,
   "華": 5836,
   "菱": 5837,
   "菲": 5838,
   "菸": 5839,
   "菽": 5840,
   "萁": 5841,
   "萃": 5842,
   "萄": 5843,
   "萊": 5844,
   "萋": 5845,
   "萌": 5846,
   "萍": 5847,
   "萎": 5848,
   "萘": 5849,
   "萝": 5850,
   "萤": 5851,
   "营": 5852,
   "萦": 5853,
   "萧": 5854,
   "萨": 5855,
   "萩": 5856,
   "萬": 5857,
   "萱": 5858,
   "萵": 5859,
   "萸": 5860,
   "萼": 5861,
   "落": 5862,
   "葆": 5863,
   "葉": 5864,
   "著": 5865,
   "葚": 5866,
   "葛": 5867,
   "葡": 5868,
   "董": 5869,
   "葦": 5870,
   "葩": 5871,
   "葫": 5872,
   "葬": 5873,
   "葭": 5874,
   "葯": 5875,
   "葱": 5876,
   "葳": 5877,
   "葵": 5878,
   "葷": 5879,
   "葺": 5880,
   "蒂": 5881,
   "蒋": 5882,
   "蒐": 5883,
   "蒔": 5884,
   "蒙": 5885,
   "蒜": 5886,
   "蒞": 5887,
   "蒟": 5888,
   "蒡": 5889,
   "蒨": 5890,
   "蒲": 5891,
   "蒸": 5892,
   "蒹": 5893,
   "蒻": 5894,
   "蒼": 5895,
   "蒿": 5896,
   "蓁": 5897,
   "蓄": 5898,
   "蓆": 5899,
   "蓉": 5900,
   "蓋": 5901,
   "蓑": 5902,
   "蓓": 5903,
   "蓖": 5904,
   "蓝": 5905,
   "蓟": 5906,
   "蓦": 5907,
   "蓬": 5908,
   "蓮": 5909,
   "蓼": 5910,
   "蓿": 5911,
   "蔑": 5912,
   "蔓": 5913,
   "蔔": 5914,
   "蔗": 5915,
   "蔘": 5916,
   "蔚": 5917,
   "蔡": 5918,
   "蔣": 5919,
   "蔥": 5920,
   "蔫": 5921,
   "蔬": 5922,
   "蔭": 5923,
   "蔵": 5924,
   "蔷": 5925,
   "蔺": 5926,
   "蔻": 5927,
   "蔼": 5928,
   "蔽": 5929,
   "蕁": 5930,
   "蕃": 5931,
   "蕈": 5932,
   "蕉": 5933,
   "蕊": 5934,
   "蕎": 5935,
   "蕙": 5936,
   "蕤": 5937,
   "蕨": 5938,
   "蕩": 5939,
   "蕪": 5940,
   "蕭": 5941,
   "蕲": 5942,
   "蕴": 5943,
   "蕻": 5944,
   "蕾": 5945,
   "薄": 5946,
   "薅": 5947,
   "薇": 5948,
   "薈": 5949,
   "薊": 5950,
   "薏": 5951,
   "薑": 5952,
   "薔": 5953,
   "薙": 5954,
   "薛": 5955,
   "薦": 5956,
   "薨": 5957,
   "薩": 5958,
   "薪": 5959,
   "薬": 5960,
   "薯": 5961,
   "薰": 5962,
   "薹": 5963,
   "藉": 5964,
   "藍": 5965,
   "藏": 5966,
   "藐": 5967,
   "藓": 5968,
   "藕": 5969,
   "藜": 5970,
   "藝": 5971,
   "藤": 5972,
   "藥": 5973,
   "藩": 5974,
   "藹": 5975,
   "藻": 5976,
   "藿": 5977,
   "蘆": 5978,
   "蘇": 5979,
   "蘊": 5980,
   "蘋": 5981,
   "蘑": 5982,
   "蘚": 5983,
   "蘭": 5984,
   "蘸": 5985,
   "蘼": 5986,
   "蘿": 5987,
   "虎": 5988,
   "虏": 5989,
   "虐": 5990,
   "虑": 5991,
   "虔": 5992,
   "處": 5993,
   "虚": 5994,
   "虛": 5995,
   "虜": 5996,
   "虞": 5997,
   "號": 5998,
   "虢": 5999,
   "虧": 6000,
   "虫": 6001,
   "虬": 6002,
   "虱": 6003,
   "虹": 6004,
   "虻": 6005,
   "虽": 6006,
   "虾": 6007,
   "蚀": 6008,
   "蚁": 6009,
   "蚂": 6010,
   "蚊": 6011,
   "蚌": 6012,
   "蚓": 6013,
   "蚕": 6014,
   "蚜": 6015,
   "蚝": 6016,
   "蚣": 6017,
   "蚤": 6018,
   "蚩": 6019,
   "蚪": 6020,
   "蚯": 6021,
   "蚱": 6022,
   "蚵": 6023,
   "蛀": 6024,
   "蛆": 6025,
   "蛇": 6026,
   "蛊": 6027,
   "蛋": 6028,
   "蛎": 6029,
   "蛐": 6030,
   "蛔": 6031,
   "蛙": 6032,
   "蛛": 6033,
   "蛟": 6034,
   "蛤": 6035,
   "蛭": 6036,
   "蛮": 6037,
   "蛰": 6038,
   "蛳": 6039,
   "蛹": 6040,
   "蛻": 6041,
   "蛾": 6042,
   "蜀": 6043,
   "蜂": 6044,
   "蜃": 6045,
   "蜆": 6046,
   "蜇": 6047,
   "蜈": 6048,
   "蜊": 6049,
   "蜍": 6050,
   "蜒": 6051,
   "蜓": 6052,
   "蜕": 6053,
   "蜗": 6054,
   "蜘": 6055,
   "蜚": 6056,
   "蜜": 6057,
   "蜡": 6058,
   "蜢": 6059,
   "蜥": 6060,
   "蜱": 6061,
   "蜴": 6062,
   "蜷": 6063,
   "蜻": 6064,
   "蜿": 6065,
   "蝇": 6066,
   "蝈": 6067,
   "蝉": 6068,
   "蝌": 6069,
   "蝎": 6070,
   "蝕": 6071,
   "蝗": 6072,
   "蝙": 6073,
   "蝟": 6074,
   "蝠": 6075,
   "蝦": 6076,
   "蝨": 6077,
   "蝴": 6078,
   "蝶": 6079,
   "蝸": 6080,
   "蝼": 6081,
   "螂": 6082,
   "螃": 6083,
   "融": 6084,
   "螞": 6085,
   "螢": 6086,
   "螨": 6087,
   "螯": 6088,
   "螳": 6089,
   "螺": 6090,
   "蟀": 6091,
   "蟄": 6092,
   "蟆": 6093,
   "蟋": 6094,
   "蟎": 6095,
   "蟑": 6096,
   "蟒": 6097,
   "蟠": 6098,
   "蟬": 6099,
   "蟲": 6100,
   "蟹": 6101,
   "蟻": 6102,
   "蟾": 6103,
   "蠅": 6104,
   "蠍": 6105,
   "蠔": 6106,
   "蠕": 6107,
   "蠛": 6108,
   "蠟": 6109,
   "蠡": 6110,
   "蠢": 6111,
   "蠣": 6112,
   "蠱": 6113,
   "蠶": 6114,
   "蠹": 6115,
   "蠻": 6116,
   "血": 6117,
   "衄": 6118,
   "衅": 6119,
   "衆": 6120,
   "行": 6121,
   "衍": 6122,
   "術": 6123,
   "衔": 6124,
   "街": 6125,
   "衙": 6126,
   "衛": 6127,
   "衝": 6128,
   "衞": 6129,
   "衡": 6130,
   "衢": 6131,
   "衣": 6132,
   "补": 6133,
   "表": 6134,
   "衩": 6135,
   "衫": 6136,
   "衬": 6137,
   "衮": 6138,
   "衰": 6139,
   "衲": 6140,
   "衷": 6141,
   "衹": 6142,
   "衾": 6143,
   "衿": 6144,
   "袁": 6145,
   "袂": 6146,
   "袄": 6147,
   "袅": 6148,
   "袈": 6149,
   "袋": 6150,
   "袍": 6151,
   "袒": 6152,
   "袖": 6153,
   "袜": 6154,
   "袞": 6155,
   "袤": 6156,
   "袪": 6157,
   "被": 6158,
   "袭": 6159,
   "袱": 6160,
   "裁": 6161,
   "裂": 6162,
   "装": 6163,
   "裆": 6164,
   "裊": 6165,
   "裏": 6166,
   "裔": 6167,
   "裕": 6168,
   "裘": 6169,
   "裙": 6170,
   "補": 6171,
   "裝": 6172,
   "裟": 6173,
   "裡": 6174,
   "裤": 6175,
   "裨": 6176,
   "裱": 6177,
   "裳": 6178,
   "裴": 6179,
   "裸": 6180,
   "裹": 6181,
   "製": 6182,
   "裾": 6183,
   "褂": 6184,
   "複": 6185,
   "褐": 6186,
   "褒": 6187,
   "褓": 6188,
   "褔": 6189,
   "褚": 6190,
   "褥": 6191,
   "褪": 6192,
   "褫": 6193,
   "褲": 6194,
   "褶": 6195,
   "褻": 6196,
   "襁": 6197,
   "襄": 6198,
   "襟": 6199,
   "襠": 6200,
   "襪": 6201,
   "襬": 6202,
   "襯": 6203,
   "襲": 6204,
   "西": 6205,
   "要": 6206,
   "覃": 6207,
   "覆": 6208,
   "覇": 6209,
   "見": 6210,
   "規": 6211,
   "覓": 6212,
   "視": 6213,
   "覚": 6214,
   "覦": 6215,
   "覧": 6216,
   "親": 6217,
   "覬": 6218,
   "観": 6219,
   "覷": 6220,
   "覺": 6221,
   "覽": 6222,
   "觀": 6223,
   "见": 6224,
   "观": 6225,
   "规": 6226,
   "觅": 6227,
   "视": 6228,
   "览": 6229,
   "觉": 6230,
   "觊": 6231,
   "觎": 6232,
   "觐": 6233,
   "觑": 6234,
   "角": 6235,
   "觞": 6236,
   "解": 6237,
   "觥": 6238,
   "触": 6239,
   "觸": 6240,
   "言": 6241,
   "訂": 6242,
   "計": 6243,
   "訊": 6244,
   "討": 6245,
   "訓": 6246,
   "訕": 6247,
   "訖": 6248,
   "託": 6249,
   "記": 6250,
   "訛": 6251,
   "訝": 6252,
   "訟": 6253,
   "訣": 6254,
   "訥": 6255,
   "訪": 6256,
   "設": 6257,
   "許": 6258,
   "訳": 6259,
   "訴": 6260,
   "訶": 6261,
   "診": 6262,
   "註": 6263,
   "証": 6264,
   "詆": 6265,
   "詐": 6266,
   "詔": 6267,
   "評": 6268,
   "詛": 6269,
   "詞": 6270,
   "詠": 6271,
   "詡": 6272,
   "詢": 6273,
   "詣": 6274,
   "試": 6275,
   "詩": 6276,
   "詫": 6277,
   "詬": 6278,
   "詭": 6279,
   "詮": 6280,
   "詰": 6281,
   "話": 6282,
   "該": 6283,
   "詳": 6284,
   "詹": 6285,
   "詼": 6286,
   "誅": 6287,
   "誇": 6288,
   "誉": 6289,
   "誌": 6290,
   "認": 6291,
   "誓": 6292,
   "誕": 6293,
   "誘": 6294,
   "語": 6295,
   "誠": 6296,
   "誡": 6297,
   "誣": 6298,
   "誤": 6299,
   "誥": 6300,
   "誦": 6301,
   "誨": 6302,
   "說": 6303,
   "説": 6304,
   "読": 6305,
   "誰": 6306,
   "課": 6307,
   "誹": 6308,
   "誼": 6309,
   "調": 6310,
   "諄": 6311,
   "談": 6312,
   "請": 6313,
   "諏": 6314,
   "諒": 6315,
   "論": 6316,
   "諗": 6317,
   "諜": 6318,
   "諡": 6319,
   "諦": 6320,
   "諧": 6321,
   "諫": 6322,
   "諭": 6323,
   "諮": 6324,
   "諱": 6325,
   "諳": 6326,
   "諷": 6327,
   "諸": 6328,
   "諺": 6329,
   "諾": 6330,
   "謀": 6331,
   "謁": 6332,
   "謂": 6333,
   "謄": 6334,
   "謊": 6335,
   "謎": 6336,
   "謐": 6337,
   "謔": 6338,
   "謗": 6339,
   "謙": 6340,
   "講": 6341,
   "謝": 6342,
   "謠": 6343,
   "謨": 6344,
   "謬": 6345,
   "謹": 6346,
   "謾": 6347,
   "譁": 6348,
   "證": 6349,
   "譎": 6350,
   "譏": 6351,
   "識": 6352,
   "譙": 6353,
   "譚": 6354,
   "譜": 6355,
   "警": 6356,
   "譬": 6357,
   "譯": 6358,
   "議": 6359,
   "譲": 6360,
   "譴": 6361,
   "護": 6362,
   "譽": 6363,
   "讀": 6364,
   "變": 6365,
   "讓": 6366,
   "讚": 6367,
   "讞": 6368,
   "计": 6369,
   "订": 6370,
   "认": 6371,
   "讥": 6372,
   "讧": 6373,
   "讨": 6374,
   "让": 6375,
   "讪": 6376,
   "讫": 6377,
   "训": 6378,
   "议": 6379,
   "讯": 6380,
   "记": 6381,
   "讲": 6382,
   "讳": 6383,
   "讴": 6384,
   "讶": 6385,
   "讷": 6386,
   "许": 6387,
   "讹": 6388,
   "论": 6389,
   "讼": 6390,
   "讽": 6391,
   "设": 6392,
   "访": 6393,
   "诀": 6394,
   "证": 6395,
   "诃": 6396,
   "评": 6397,
   "诅": 6398,
   "识": 6399,
   "诈": 6400,
   "诉": 6401,
   "诊": 6402,
   "诋": 6403,
   "词": 6404,
   "诏": 6405,
   "译": 6406,
   "试": 6407,
   "诗": 6408,
   "诘": 6409,
   "诙": 6410,
   "诚": 6411,
   "诛": 6412,
   "话": 6413,
   "诞": 6414,
   "诟": 6415,
   "诠": 6416,
   "诡": 6417,
   "询": 6418,
   "诣": 6419,
   "诤": 6420,
   "该": 6421,
   "详": 6422,
   "诧": 6423,
   "诩": 6424,
   "诫": 6425,
   "诬": 6426,
   "语": 6427,
   "误": 6428,
   "诰": 6429,
   "诱": 6430,
   "诲": 6431,
   "说": 6432,
   "诵": 6433,
   "诶": 6434,
   "请": 6435,
   "诸": 6436,
   "诺": 6437,
   "读": 6438,
   "诽": 6439,
   "课": 6440,
   "诿": 6441,
   "谀": 6442,
   "谁": 6443,
   "调": 6444,
   "谄": 6445,
   "谅": 6446,
   "谆": 6447,
   "谈": 6448,
   "谊": 6449,
   "谋": 6450,
   "谌": 6451,
   "谍": 6452,
   "谎": 6453,
   "谏": 6454,
   "谐": 6455,
   "谑": 6456,
   "谒": 6457,
   "谓": 6458,
   "谔": 6459,
   "谕": 6460,
   "谗": 6461,
   "谘": 6462,
   "谙": 6463,
   "谚": 6464,
   "谛": 6465,
   "谜": 6466,
   "谟": 6467,
   "谢": 6468,
   "谣": 6469,
   "谤": 6470,
   "谥": 6471,
   "谦": 6472,
   "谧": 6473,
   "谨": 6474,
   "谩": 6475,
   "谪": 6476,
   "谬": 6477,
   "谭": 6478,
   "谯": 6479,
   "谱": 6480,
   "谲": 6481,
   "谴": 6482,
   "谶": 6483,
   "谷": 6484,
   "豁": 6485,
   "豆": 6486,
   "豇": 6487,
   "豈": 6488,
   "豉": 6489,
   "豊": 6490,
   "豌": 6491,
   "豎": 6492,
   "豐": 6493,
   "豔": 6494,
   "豚": 6495,
   "象": 6496,
   "豢": 6497,
   "豪": 6498,
   "豫": 6499,
   "豬": 6500,
   "豹": 6501,
   "豺": 6502,
   "貂": 6503,
   "貅": 6504,
   "貌": 6505,
   "貓": 6506,
   "貔": 6507,
   "貘": 6508,
   "貝": 6509,
   "貞": 6510,
   "負": 6511,
   "財": 6512,
   "貢": 6513,
   "貧": 6514,
   "貨": 6515,
   "販": 6516,
   "貪": 6517,
   "貫": 6518,
   "責": 6519,
   "貯": 6520,
   "貰": 6521,
   "貳": 6522,
   "貴": 6523,
   "貶": 6524,
   "買": 6525,
   "貸": 6526,
   "費": 6527,
   "貼": 6528,
   "貽": 6529,
   "貿": 6530,
   "賀": 6531,
   "賁": 6532,
   "賂": 6533,
   "賃": 6534,
   "賄": 6535,
   "資": 6536,
   "賈": 6537,
   "賊": 6538,
   "賑": 6539,
   "賓": 6540,
   "賜": 6541,
   "賞": 6542,
   "賠": 6543,
   "賡": 6544,
   "賢": 6545,
   "賣": 6546,
   "賤": 6547,
   "賦": 6548,
   "質": 6549,
   "賬": 6550,
   "賭": 6551,
   "賴": 6552,
   "賺": 6553,
   "購": 6554,
   "賽": 6555,
   "贅": 6556,
   "贈": 6557,
   "贊": 6558,
   "贍": 6559,
   "贏": 6560,
   "贓": 6561,
   "贖": 6562,
   "贛": 6563,
   "贝": 6564,
   "贞": 6565,
   "负": 6566,
   "贡": 6567,
   "财": 6568,
   "责": 6569,
   "贤": 6570,
   "败": 6571,
   "账": 6572,
   "货": 6573,
   "质": 6574,
   "贩": 6575,
   "贪": 6576,
   "贫": 6577,
   "贬": 6578,
   "购": 6579,
   "贮": 6580,
   "贯": 6581,
   "贰": 6582,
   "贱": 6583,
   "贲": 6584,
   "贴": 6585,
   "贵": 6586,
   "贷": 6587,
   "贸": 6588,
   "费": 6589,
   "贺": 6590,
   "贻": 6591,
   "贼": 6592,
   "贾": 6593,
   "贿": 6594,
   "赁": 6595,
   "赂": 6596,
   "赃": 6597,
   "资": 6598,
   "赅": 6599,
   "赈": 6600,
   "赊": 6601,
   "赋": 6602,
   "赌": 6603,
   "赎": 6604,
   "赏": 6605,
   "赐": 6606,
   "赓": 6607,
   "赔": 6608,
   "赖": 6609,
   "赘": 6610,
   "赚": 6611,
   "赛": 6612,
   "赝": 6613,
   "赞": 6614,
   "赠": 6615,
   "赡": 6616,
   "赢": 6617,
   "赣": 6618,
   "赤": 6619,
   "赦": 6620,
   "赧": 6621,
   "赫": 6622,
   "赭": 6623,
   "走": 6624,
   "赳": 6625,
   "赴": 6626,
   "赵": 6627,
   "赶": 6628,
   "起": 6629,
   "趁": 6630,
   "超": 6631,
   "越": 6632,
   "趋": 6633,
   "趕": 6634,
   "趙": 6635,
   "趟": 6636,
   "趣": 6637,
   "趨": 6638,
   "足": 6639,
   "趴": 6640,
   "趵": 6641,
   "趸": 6642,
   "趺": 6643,
   "趾": 6644,
   "跃": 6645,
   "跄": 6646,
   "跆": 6647,
   "跋": 6648,
   "跌": 6649,
   "跎": 6650,
   "跑": 6651,
   "跖": 6652,
   "跚": 6653,
   "跛": 6654,
   "距": 6655,
   "跟": 6656,
   "跡": 6657,
   "跤": 6658,
   "跨": 6659,
   "跩": 6660,
   "跪": 6661,
   "路": 6662,
   "跳": 6663,
   "践": 6664,
   "跷": 6665,
   "跹": 6666,
   "跺": 6667,
   "跻": 6668,
   "踉": 6669,
   "踊": 6670,
   "踌": 6671,
   "踏": 6672,
   "踐": 6673,
   "踝": 6674,
   "踞": 6675,
   "踟": 6676,
   "踢": 6677,
   "踩": 6678,
   "踪": 6679,
   "踮": 6680,
   "踱": 6681,
   "踴": 6682,
   "踵": 6683,
   "踹": 6684,
   "蹂": 6685,
   "蹄": 6686,
   "蹇": 6687,
   "蹈": 6688,
   "蹉": 6689,
   "蹊": 6690,
   "蹋": 6691,
   "蹑": 6692,
   "蹒": 6693,
   "蹙": 6694,
   "蹟": 6695,
   "蹣": 6696,
   "蹤": 6697,
   "蹦": 6698,
   "蹩": 6699,
   "蹬": 6700,
   "蹭": 6701,
   "蹲": 6702,
   "蹴": 6703,
   "蹶": 6704,
   "蹺": 6705,
   "蹼": 6706,
   "蹿": 6707,
   "躁": 6708,
   "躇": 6709,
   "躉": 6710,
   "躊": 6711,
   "躋": 6712,
   "躍": 6713,
   "躏": 6714,
   "躪": 6715,
   "身": 6716,
   "躬": 6717,
   "躯": 6718,
   "躲": 6719,
   "躺": 6720,
   "軀": 6721,
   "車": 6722,
   "軋": 6723,
   "軌": 6724,
   "軍": 6725,
   "軒": 6726,
   "軟": 6727,
   "転": 6728,
   "軸": 6729,
   "軼": 6730,
   "軽": 6731,
   "軾": 6732,
   "較": 6733,
   "載": 6734,
   "輒": 6735,
   "輓": 6736,
   "輔": 6737,
   "輕": 6738,
   "輛": 6739,
   "輝": 6740,
   "輟": 6741,
   "輩": 6742,
   "輪": 6743,
   "輯": 6744,
   "輸": 6745,
   "輻": 6746,
   "輾": 6747,
   "輿": 6748,
   "轄": 6749,
   "轅": 6750,
   "轆": 6751,
   "轉": 6752,
   "轍": 6753,
   "轎": 6754,
   "轟": 6755,
   "车": 6756,
   "轧": 6757,
   "轨": 6758,
   "轩": 6759,
   "转": 6760,
   "轭": 6761,
   "轮": 6762,
   "软": 6763,
   "轰": 6764,
   "轲": 6765,
   "轴": 6766,
   "轶": 6767,
   "轻": 6768,
   "轼": 6769,
   "载": 6770,
   "轿": 6771,
   "较": 6772,
   "辄": 6773,
   "辅": 6774,
   "辆": 6775,
   "辇": 6776,
   "辈": 6777,
   "辉": 6778,
   "辊": 6779,
   "辍": 6780,
   "辐": 6781,
   "辑": 6782,
   "输": 6783,
   "辕": 6784,
   "辖": 6785,
   "辗": 6786,
   "辘": 6787,
   "辙": 6788,
   "辛": 6789,
   "辜": 6790,
   "辞": 6791,
   "辟": 6792,
   "辣": 6793,
   "辦": 6794,
   "辨": 6795,
   "辩": 6796,
   "辫": 6797,
   "辭": 6798,
   "辮": 6799,
   "辯": 6800,
   "辰": 6801,
   "辱": 6802,
   "農": 6803,
   "边": 6804,
   "辺": 6805,
   "辻": 6806,
   "込": 6807,
   "辽": 6808,
   "达": 6809,
   "迁": 6810,
   "迂": 6811,
   "迄": 6812,
   "迅": 6813,
   "过": 6814,
   "迈": 6815,
   "迎": 6816,
   "运": 6817,
   "近": 6818,
   "返": 6819,
   "还": 6820,
   "这": 6821,
   "进": 6822,
   "远": 6823,
   "违": 6824,
   "连": 6825,
   "迟": 6826,
   "迢": 6827,
   "迤": 6828,
   "迥": 6829,
   "迦": 6830,
   "迩": 6831,
   "迪": 6832,
   "迫": 6833,
   "迭": 6834,
   "述": 6835,
   "迴": 6836,
   "迷": 6837,
   "迸": 6838,
   "迹": 6839,
   "迺": 6840,
   "追": 6841,
   "退": 6842,
   "送": 6843,
   "适": 6844,
   "逃": 6845,
   "逅": 6846,
   "逆": 6847,
   "选": 6848,
   "逊": 6849,
   "逍": 6850,
   "透": 6851,
   "逐": 6852,
   "递": 6853,
   "途": 6854,
   "逕": 6855,
   "逗": 6856,
   "這": 6857,
   "通": 6858,
   "逛": 6859,
   "逝": 6860,
   "逞": 6861,
   "速": 6862,
   "造": 6863,
   "逢": 6864,
   "連": 6865,
   "逮": 6866,
   "週": 6867,
   "進": 6868,
   "逵": 6869,
   "逶": 6870,
   "逸": 6871,
   "逻": 6872,
   "逼": 6873,
   "逾": 6874,
   "遁": 6875,
   "遂": 6876,
   "遅": 6877,
   "遇": 6878,
   "遊": 6879,
   "運": 6880,
   "遍": 6881,
   "過": 6882,
   "遏": 6883,
   "遐": 6884,
   "遑": 6885,
   "遒": 6886,
   "道": 6887,
   "達": 6888,
   "違": 6889,
   "遗": 6890,
   "遙": 6891,
   "遛": 6892,
   "遜": 6893,
   "遞": 6894,
   "遠": 6895,
   "遢": 6896,
   "遣": 6897,
   "遥": 6898,
   "遨": 6899,
   "適": 6900,
   "遭": 6901,
   "遮": 6902,
   "遲": 6903,
   "遴": 6904,
   "遵": 6905,
   "遶": 6906,
   "遷": 6907,
   "選": 6908,
   "遺": 6909,
   "遼": 6910,
   "遽": 6911,
   "避": 6912,
   "邀": 6913,
   "邁": 6914,
   "邂": 6915,
   "邃": 6916,
   "還": 6917,
   "邇": 6918,
   "邈": 6919,
   "邊": 6920,
   "邋": 6921,
   "邏": 6922,
   "邑": 6923,
   "邓": 6924,
   "邕": 6925,
   "邛": 6926,
   "邝": 6927,
   "邢": 6928,
   "那": 6929,
   "邦": 6930,
   "邨": 6931,
   "邪": 6932,
   "邬": 6933,
   "邮": 6934,
   "邯": 6935,
   "邰": 6936,
   "邱": 6937,
   "邳": 6938,
   "邵": 6939,
   "邸": 6940,
   "邹": 6941,
   "邺": 6942,
   "邻": 6943,
   "郁": 6944,
   "郅": 6945,
   "郊": 6946,
   "郎": 6947,
   "郑": 6948,
   "郜": 6949,
   "郝": 6950,
   "郡": 6951,
   "郢": 6952,
   "郤": 6953,
   "郦": 6954,
   "郧": 6955,
   "部": 6956,
   "郫": 6957,
   "郭": 6958,
   "郴": 6959,
   "郵": 6960,
   "郷": 6961,
   "郸": 6962,
   "都": 6963,
   "鄂": 6964,
   "鄉": 6965,
   "鄒": 6966,
   "鄔": 6967,
   "鄙": 6968,
   "鄞": 6969,
   "鄢": 6970,
   "鄧": 6971,
   "鄭": 6972,
   "鄰": 6973,
   "鄱": 6974,
   "鄲": 6975,
   "鄺": 6976,
   "酉": 6977,
   "酊": 6978,
   "酋": 6979,
   "酌": 6980,
   "配": 6981,
   "酐": 6982,
   "酒": 6983,
   "酗": 6984,
   "酚": 6985,
   "酝": 6986,
   "酢": 6987,
   "酣": 6988,
   "酥": 6989,
   "酩": 6990,
   "酪": 6991,
   "酬": 6992,
   "酮": 6993,
   "酯": 6994,
   "酰": 6995,
   "酱": 6996,
   "酵": 6997,
   "酶": 6998,
   "酷": 6999,
   "酸": 7000,
   "酿": 7001,
   "醃": 7002,
   "醇": 7003,
   "醉": 7004,
   "醋": 7005,
   "醍": 7006,
   "醐": 7007,
   "醒": 7008,
   "醚": 7009,
   "醛": 7010,
   "醜": 7011,
   "醞": 7012,
   "醣": 7013,
   "醪": 7014,
   "醫": 7015,
   "醬": 7016,
   "醮": 7017,
   "醯": 7018,
   "醴": 7019,
   "醺": 7020,
   "釀": 7021,
   "釁": 7022,
   "采": 7023,
   "釉": 7024,
   "释": 7025,
   "釋": 7026,
   "里": 7027,
   "重": 7028,
   "野": 7029,
   "量": 7030,
   "釐": 7031,
   "金": 7032,
   "釗": 7033,
   "釘": 7034,
   "釜": 7035,
   "針": 7036,
   "釣": 7037,
   "釦": 7038,
   "釧": 7039,
   "釵": 7040,
   "鈀": 7041,
   "鈉": 7042,
   "鈍": 7043,
   "鈎": 7044,
   "鈔": 7045,
   "鈕": 7046,
   "鈞": 7047,
   "鈣": 7048,
   "鈦": 7049,
   "鈪": 7050,
   "鈴": 7051,
   "鈺": 7052,
   "鈾": 7053,
   "鉀": 7054,
   "鉄": 7055,
   "鉅": 7056,
   "鉉": 7057,
   "鉑": 7058,
   "鉗": 7059,
   "鉚": 7060,
   "鉛": 7061,
   "鉤": 7062,
   "鉴": 7063,
   "鉻": 7064,
   "銀": 7065,
   "銃": 7066,
   "銅": 7067,
   "銑": 7068,
   "銓": 7069,
   "銖": 7070,
   "銘": 7071,
   "銜": 7072,
   "銬": 7073,
   "銭": 7074,
   "銮": 7075,
   "銳": 7076,
   "銷": 7077,
   "銹": 7078,
   "鋁": 7079,
   "鋅": 7080,
   "鋒": 7081,
   "鋤": 7082,
   "鋪": 7083,
   "鋰": 7084,
   "鋸": 7085,
   "鋼": 7086,
   "錄": 7087,
   "錐": 7088,
   "錘": 7089,
   "錚": 7090,
   "錠": 7091,
   "錢": 7092,
   "錦": 7093,
   "錨": 7094,
   "錫": 7095,
   "錮": 7096,
   "錯": 7097,
   "録": 7098,
   "錳": 7099,
   "錶": 7100,
   "鍊": 7101,
   "鍋": 7102,
   "鍍": 7103,
   "鍛": 7104,
   "鍥": 7105,
   "鍰": 7106,
   "鍵": 7107,
   "鍺": 7108,
   "鍾": 7109,
   "鎂": 7110,
   "鎊": 7111,
   "鎌": 7112,
   "鎏": 7113,
   "鎔": 7114,
   "鎖": 7115,
   "鎗": 7116,
   "鎚": 7117,
   "鎧": 7118,
   "鎬": 7119,
   "鎮": 7120,
   "鎳": 7121,
   "鏈": 7122,
   "鏖": 7123,
   "鏗": 7124,
   "鏘": 7125,
   "鏞": 7126,
   "鏟": 7127,
   "鏡": 7128,
   "鏢": 7129,
   "鏤": 7130,
   "鏽": 7131,
   "鐘": 7132,
   "鐮": 7133,
   "鐲": 7134,
   "鐳": 7135,
   "鐵": 7136,
   "鐸": 7137,
   "鐺": 7138,
   "鑄": 7139,
   "鑊": 7140,
   "鑑": 7141,
   "鑒": 7142,
   "鑣": 7143,
   "鑫": 7144,
   "鑰": 7145,
   "鑲": 7146,
   "鑼": 7147,
   "鑽": 7148,
   "鑾": 7149,
   "鑿": 7150,
   "针": 7151,
   "钉": 7152,
   "钊": 7153,
   "钎": 7154,
   "钏": 7155,
   "钒": 7156,
   "钓": 7157,
   "钗": 7158,
   "钙": 7159,
   "钛": 7160,
   "钜": 7161,
   "钝": 7162,
   "钞": 7163,
   "钟": 7164,
   "钠": 7165,
   "钡": 7166,
   "钢": 7167,
   "钣": 7168,
   "钤": 7169,
   "钥": 7170,
   "钦": 7171,
   "钧": 7172,
   "钨": 7173,
   "钩": 7174,
   "钮": 7175,
   "钯": 7176,
   "钰": 7177,
   "钱": 7178,
   "钳": 7179,
   "钴": 7180,
   "钵": 7181,
   "钺": 7182,
   "钻": 7183,
   "钼": 7184,
   "钾": 7185,
   "钿": 7186,
   "铀": 7187,
   "铁": 7188,
   "铂": 7189,
   "铃": 7190,
   "铄": 7191,
   "铅": 7192,
   "铆": 7193,
   "铉": 7194,
   "铎": 7195,
   "铐": 7196,
   "铛": 7197,
   "铜": 7198,
   "铝": 7199,
   "铠": 7200,
   "铡": 7201,
   "铢": 7202,
   "铣": 7203,
   "铤": 7204,
   "铨": 7205,
   "铩": 7206,
   "铬": 7207,
   "铭": 7208,
   "铮": 7209,
   "铰": 7210,
   "铲": 7211,
   "铵": 7212,
   "银": 7213,
   "铸": 7214,
   "铺": 7215,
   "链": 7216,
   "铿": 7217,
   "销": 7218,
   "锁": 7219,
   "锂": 7220,
   "锄": 7221,
   "锅": 7222,
   "锆": 7223,
   "锈": 7224,
   "锉": 7225,
   "锋": 7226,
   "锌": 7227,
   "锏": 7228,
   "锐": 7229,
   "锑": 7230,
   "错": 7231,
   "锚": 7232,
   "锟": 7233,
   "锡": 7234,
   "锢": 7235,
   "锣": 7236,
   "锤": 7237,
   "锥": 7238,
   "锦": 7239,
   "锭": 7240,
   "键": 7241,
   "锯": 7242,
   "锰": 7243,
   "锲": 7244,
   "锵": 7245,
   "锹": 7246,
   "锺": 7247,
   "锻": 7248,
   "镀": 7249,
   "镁": 7250,
   "镂": 7251,
   "镇": 7252,
   "镉": 7253,
   "镌": 7254,
   "镍": 7255,
   "镐": 7256,
   "镑": 7257,
   "镕": 7258,
   "镖": 7259,
   "镗": 7260,
   "镛": 7261,
   "镜": 7262,
   "镣": 7263,
   "镭": 7264,
   "镯": 7265,
   "镰": 7266,
   "镳": 7267,
   "镶": 7268,
   "長": 7269,
   "长": 7270,
   "門": 7271,
   "閃": 7272,
   "閉": 7273,
   "開": 7274,
   "閎": 7275,
   "閏": 7276,
   "閑": 7277,
   "閒": 7278,
   "間": 7279,
   "閔": 7280,
   "閘": 7281,
   "閡": 7282,
   "関": 7283,
   "閣": 7284,
   "閥": 7285,
   "閨": 7286,
   "閩": 7287,
   "閱": 7288,
   "閲": 7289,
   "閹": 7290,
   "閻": 7291,
   "閾": 7292,
   "闆": 7293,
   "闇": 7294,
   "闊": 7295,
   "闌": 7296,
   "闍": 7297,
   "闔": 7298,
   "闕": 7299,
   "闖": 7300,
   "闘": 7301,
   "關": 7302,
   "闡": 7303,
   "闢": 7304,
   "门": 7305,
   "闪": 7306,
   "闫": 7307,
   "闭": 7308,
   "问": 7309,
   "闯": 7310,
   "闰": 7311,
   "闲": 7312,
   "间": 7313,
   "闵": 7314,
   "闷": 7315,
   "闸": 7316,
   "闹": 7317,
   "闺": 7318,
   "闻": 7319,
   "闽": 7320,
   "闾": 7321,
   "阀": 7322,
   "阁": 7323,
   "阂": 7324,
   "阅": 7325,
   "阆": 7326,
   "阇": 7327,
   "阈": 7328,
   "阉": 7329,
   "阎": 7330,
   "阐": 7331,
   "阑": 7332,
   "阔": 7333,
   "阕": 7334,
   "阖": 7335,
   "阙": 7336,
   "阚": 7337,
   "阜": 7338,
   "队": 7339,
   "阡": 7340,
   "阪": 7341,
   "阮": 7342,
   "阱": 7343,
   "防": 7344,
   "阳": 7345,
   "阴": 7346,
   "阵": 7347,
   "阶": 7348,
   "阻": 7349,
   "阿": 7350,
   "陀": 7351,
   "陂": 7352,
   "附": 7353,
   "际": 7354,
   "陆": 7355,
   "陇": 7356,
   "陈": 7357,
   "陋": 7358,
   "陌": 7359,
   "降": 7360,
   "限": 7361,
   "陕": 7362,
   "陛": 7363,
   "陝": 7364,
   "陞": 7365,
   "陟": 7366,
   "陡": 7367,
   "院": 7368,
   "陣": 7369,
   "除": 7370,
   "陨": 7371,
   "险": 7372,
   "陪": 7373,
   "陰": 7374,
   "陲": 7375,
   "陳": 7376,
   "陵": 7377,
   "陶": 7378,
   "陷": 7379,
   "陸": 7380,
   "険": 7381,
   "陽": 7382,
   "隅": 7383,
   "隆": 7384,
   "隈": 7385,
   "隊": 7386,
   "隋": 7387,
   "隍": 7388,
   "階": 7389,
   "随": 7390,
   "隐": 7391,
   "隔": 7392,
   "隕": 7393,
   "隘": 7394,
   "隙": 7395,
   "際": 7396,
   "障": 7397,
   "隠": 7398,
   "隣": 7399,
   "隧": 7400,
   "隨": 7401,
   "險": 7402,
   "隱": 7403,
   "隴": 7404,
   "隶": 7405,
   "隸": 7406,
   "隻": 7407,
   "隼": 7408,
   "隽": 7409,
   "难": 7410,
   "雀": 7411,
   "雁": 7412,
   "雄": 7413,
   "雅": 7414,
   "集": 7415,
   "雇": 7416,
   "雉": 7417,
   "雋": 7418,
   "雌": 7419,
   "雍": 7420,
   "雎": 7421,
   "雏": 7422,
   "雑": 7423,
   "雒": 7424,
   "雕": 7425,
   "雖": 7426,
   "雙": 7427,
   "雛": 7428,
   "雜": 7429,
   "雞": 7430,
   "離": 7431,
   "難": 7432,
   "雨": 7433,
   "雪": 7434,
   "雯": 7435,
   "雰": 7436,
   "雲": 7437,
   "雳": 7438,
   "零": 7439,
   "雷": 7440,
   "雹": 7441,
   "電": 7442,
   "雾": 7443,
   "需": 7444,
   "霁": 7445,
   "霄": 7446,
   "霆": 7447,
   "震": 7448,
   "霈": 7449,
   "霉": 7450,
   "霊": 7451,
   "霍": 7452,
   "霎": 7453,
   "霏": 7454,
   "霑": 7455,
   "霓": 7456,
   "霖": 7457,
   "霜": 7458,
   "霞": 7459,
   "霧": 7460,
   "霭": 7461,
   "霰": 7462,
   "露": 7463,
   "霸": 7464,
   "霹": 7465,
   "霽": 7466,
   "霾": 7467,
   "靂": 7468,
   "靄": 7469,
   "靈": 7470,
   "青": 7471,
   "靓": 7472,
   "靖": 7473,
   "静": 7474,
   "靚": 7475,
   "靛": 7476,
   "靜": 7477,
   "非": 7478,
   "靠": 7479,
   "靡": 7480,
   "面": 7481,
   "靥": 7482,
   "靦": 7483,
   "革": 7484,
   "靳": 7485,
   "靴": 7486,
   "靶": 7487,
   "靼": 7488,
   "鞅": 7489,
   "鞋": 7490,
   "鞍": 7491,
   "鞏": 7492,
   "鞑": 7493,
   "鞘": 7494,
   "鞠": 7495,
   "鞣": 7496,
   "鞦": 7497,
   "鞭": 7498,
   "韆": 7499,
   "韋": 7500,
   "韌": 7501,
   "韓": 7502,
   "韜": 7503,
   "韦": 7504,
   "韧": 7505,
   "韩": 7506,
   "韬": 7507,
   "韭": 7508,
   "音": 7509,
   "韵": 7510,
   "韶": 7511,
   "韻": 7512,
   "響": 7513,
   "頁": 7514,
   "頂": 7515,
   "頃": 7516,
   "項": 7517,
   "順": 7518,
   "須": 7519,
   "頌": 7520,
   "預": 7521,
   "頑": 7522,
   "頒": 7523,
   "頓": 7524,
   "頗": 7525,
   "領": 7526,
   "頜": 7527,
   "頡": 7528,
   "頤": 7529,
   "頫": 7530,
   "頭": 7531,
   "頰": 7532,
   "頷": 7533,
   "頸": 7534,
   "頹": 7535,
   "頻": 7536,
   "頼": 7537,
   "顆": 7538,
   "題": 7539,
   "額": 7540,
   "顎": 7541,
   "顏": 7542,
   "顔": 7543,
   "願": 7544,
   "顛": 7545,
   "類": 7546,
   "顧": 7547,
   "顫": 7548,
   "顯": 7549,
   "顱": 7550,
   "顴": 7551,
   "页": 7552,
   "顶": 7553,
   "顷": 7554,
   "项": 7555,
   "顺": 7556,
   "须": 7557,
   "顼": 7558,
   "顽": 7559,
   "顾": 7560,
   "顿": 7561,
   "颁": 7562,
   "颂": 7563,
   "预": 7564,
   "颅": 7565,
   "领": 7566,
   "颇": 7567,
   "颈": 7568,
   "颉": 7569,
   "颊": 7570,
   "颌": 7571,
   "颍": 7572,
   "颐": 7573,
   "频": 7574,
   "颓": 7575,
   "颔": 7576,
   "颖": 7577,
   "颗": 7578,
   "题": 7579,
   "颚": 7580,
   "颛": 7581,
   "颜": 7582,
   "额": 7583,
   "颞": 7584,
   "颠": 7585,
   "颡": 7586,
   "颢": 7587,
   "颤": 7588,
   "颦": 7589,
   "颧": 7590,
   "風": 7591,
   "颯": 7592,
   "颱": 7593,
   "颳": 7594,
   "颶": 7595,
   "颼": 7596,
   "飄": 7597,
   "飆": 7598,
   "风": 7599,
   "飒": 7600,
   "飓": 7601,
   "飕": 7602,
   "飘": 7603,
   "飙": 7604,
   "飚": 7605,
   "飛": 7606,
   "飞": 7607,
   "食": 7608,
   "飢": 7609,
   "飨": 7610,
   "飩": 7611,
   "飪": 7612,
   "飯": 7613,
   "飲": 7614,
   "飼": 7615,
   "飽": 7616,
   "飾": 7617,
   "餃": 7618,
   "餅": 7619,
   "餉": 7620,
   "養": 7621,
   "餌": 7622,
   "餐": 7623,
   "餒": 7624,
   "餓": 7625,
   "餘": 7626,
   "餚": 7627,
   "餛": 7628,
   "餞": 7629,
   "餡": 7630,
   "館": 7631,
   "餮": 7632,
   "餵": 7633,
   "餾": 7634,
   "饅": 7635,
   "饈": 7636,
   "饋": 7637,
   "饌": 7638,
   "饍": 7639,
   "饑": 7640,
   "饒": 7641,
   "饕": 7642,
   "饗": 7643,
   "饞": 7644,
   "饥": 7645,
   "饨": 7646,
   "饪": 7647,
   "饬": 7648,
   "饭": 7649,
   "饮": 7650,
   "饯": 7651,
   "饰": 7652,
   "饱": 7653,
   "饲": 7654,
   "饴": 7655,
   "饵": 7656,
   "饶": 7657,
   "饷": 7658,
   "饺": 7659,
   "饼": 7660,
   "饽": 7661,
   "饿": 7662,
   "馀": 7663,
   "馁": 7664,
   "馄": 7665,
   "馅": 7666,
   "馆": 7667,
   "馈": 7668,
   "馋": 7669,
   "馍": 7670,
   "馏": 7671,
   "馒": 7672,
   "馔": 7673,
   "首": 7674,
   "馗": 7675,
   "香": 7676,
   "馥": 7677,
   "馨": 7678,
   "馬": 7679,
   "馭": 7680,
   "馮": 7681,
   "馳": 7682,
   "馴": 7683,
   "駁": 7684,
   "駄": 7685,
   "駅": 7686,
   "駆": 7687,
   "駐": 7688,
   "駒": 7689,
   "駕": 7690,
   "駛": 7691,
   "駝": 7692,
   "駭": 7693,
   "駱": 7694,
   "駿": 7695,
   "騁": 7696,
   "騎": 7697,
   "騏": 7698,
   "験": 7699,
   "騙": 7700,
   "騨": 7701,
   "騰": 7702,
   "騷": 7703,
   "驀": 7704,
   "驅": 7705,
   "驊": 7706,
   "驍": 7707,
   "驒": 7708,
   "驕": 7709,
   "驗": 7710,
   "驚": 7711,
   "驛": 7712,
   "驟": 7713,
   "驢": 7714,
   "驥": 7715,
   "马": 7716,
   "驭": 7717,
   "驮": 7718,
   "驯": 7719,
   "驰": 7720,
   "驱": 7721,
   "驳": 7722,
   "驴": 7723,
   "驶": 7724,
   "驷": 7725,
   "驸": 7726,
   "驹": 7727,
   "驻": 7728,
   "驼": 7729,
   "驾": 7730,
   "驿": 7731,
   "骁": 7732,
   "骂": 7733,
   "骄": 7734,
   "骅": 7735,
   "骆": 7736,
   "骇": 7737,
   "骈": 7738,
   "骊": 7739,
   "骋": 7740,
   "验": 7741,
   "骏": 7742,
   "骐": 7743,
   "骑": 7744,
   "骗": 7745,
   "骚": 7746,
   "骛": 7747,
   "骜": 7748,
   "骞": 7749,
   "骠": 7750,
   "骡": 7751,
   "骤": 7752,
   "骥": 7753,
   "骧": 7754,
   "骨": 7755,
   "骯": 7756,
   "骰": 7757,
   "骶": 7758,
   "骷": 7759,
   "骸": 7760,
   "骼": 7761,
   "髂": 7762,
   "髅": 7763,
   "髋": 7764,
   "髏": 7765,
   "髒": 7766,
   "髓": 7767,
   "體": 7768,
   "髖": 7769,
   "高": 7770,
   "髦": 7771,
   "髪": 7772,
   "髮": 7773,
   "髯": 7774,
   "髻": 7775,
   "鬃": 7776,
   "鬆": 7777,
   "鬍": 7778,
   "鬓": 7779,
   "鬚": 7780,
   "鬟": 7781,
   "鬢": 7782,
   "鬣": 7783,
   "鬥": 7784,
   "鬧": 7785,
   "鬱": 7786,
   "鬼": 7787,
   "魁": 7788,
   "魂": 7789,
   "魄": 7790,
   "魅": 7791,
   "魇": 7792,
   "魍": 7793,
   "魏": 7794,
   "魔": 7795,
   "魘": 7796,
   "魚": 7797,
   "魯": 7798,
   "魷": 7799,
   "鮑": 7800,
   "鮨": 7801,
   "鮪": 7802,
   "鮭": 7803,
   "鮮": 7804,
   "鯉": 7805,
   "鯊": 7806,
   "鯖": 7807,
   "鯛": 7808,
   "鯨": 7809,
   "鯰": 7810,
   "鯽": 7811,
   "鰍": 7812,
   "鰓": 7813,
   "鰭": 7814,
   "鰲": 7815,
   "鰻": 7816,
   "鰾": 7817,
   "鱈": 7818,
   "鱉": 7819,
   "鱔": 7820,
   "鱗": 7821,
   "鱷": 7822,
   "鱸": 7823,
   "鱼": 7824,
   "鱿": 7825,
   "鲁": 7826,
   "鲈": 7827,
   "鲍": 7828,
   "鲑": 7829,
   "鲛": 7830,
   "鲜": 7831,
   "鲟": 7832,
   "鲢": 7833,
   "鲤": 7834,
   "鲨": 7835,
   "鲫": 7836,
   "鲱": 7837,
   "鲲": 7838,
   "鲶": 7839,
   "鲷": 7840,
   "鲸": 7841,
   "鳃": 7842,
   "鳄": 7843,
   "鳅": 7844,
   "鳌": 7845,
   "鳍": 7846,
   "鳕": 7847,
   "鳖": 7848,
   "鳗": 7849,
   "鳝": 7850,
   "鳞": 7851,
   "鳥": 7852,
   "鳩": 7853,
   "鳳": 7854,
   "鳴": 7855,
   "鳶": 7856,
   "鴉": 7857,
   "鴕": 7858,
   "鴛": 7859,
   "鴦": 7860,
   "鴨": 7861,
   "鴻": 7862,
   "鴿": 7863,
   "鵑": 7864,
   "鵜": 7865,
   "鵝": 7866,
   "鵡": 7867,
   "鵬": 7868,
   "鵰": 7869,
   "鵲": 7870,
   "鶘": 7871,
   "鶩": 7872,
   "鶯": 7873,
   "鶴": 7874,
   "鷗": 7875,
   "鷲": 7876,
   "鷹": 7877,
   "鷺": 7878,
   "鸚": 7879,
   "鸞": 7880,
   "鸟": 7881,
   "鸠": 7882,
   "鸡": 7883,
   "鸢": 7884,
   "鸣": 7885,
   "鸥": 7886,
   "鸦": 7887,
   "鸨": 7888,
   "鸪": 7889,
   "鸭": 7890,
   "鸯": 7891,
   "鸳": 7892,
   "鸵": 7893,
   "鸽": 7894,
   "鸾": 7895,
   "鸿": 7896,
   "鹂": 7897,
   "鹃": 7898,
   "鹄": 7899,
   "鹅": 7900,
   "鹈": 7901,
   "鹉": 7902,
   "鹊": 7903,
   "鹌": 7904,
   "鹏": 7905,
   "鹑": 7906,
   "鹕": 7907,
   "鹘": 7908,
   "鹜": 7909,
   "鹞": 7910,
   "鹤": 7911,
   "鹦": 7912,
   "鹧": 7913,
   "鹫": 7914,
   "鹭": 7915,
   "鹰": 7916,
   "鹳": 7917,
   "鹵": 7918,
   "鹹": 7919,
   "鹼": 7920,
   "鹽": 7921,
   "鹿": 7922,
   "麂": 7923,
   "麋": 7924,
   "麒": 7925,
   "麓": 7926,
   "麗": 7927,
   "麝": 7928,
   "麟": 7929,
   "麥": 7930,
   "麦": 7931,
   "麩": 7932,
   "麴": 7933,
   "麵": 7934,
   "麸": 7935,
   "麺": 7936,
   "麻": 7937,
   "麼": 7938,
   "麽": 7939,
   "麾": 7940,
   "黃": 7941,
   "黄": 7942,
   "黍": 7943,
   "黎": 7944,
   "黏": 7945,
   "黑": 7946,
   "黒": 7947,
   "黔": 7948,
   "默": 7949,
   "黛": 7950,
   "黜": 7951,
   "黝": 7952,
   "點": 7953,
   "黠": 7954,
   "黨": 7955,
   "黯": 7956,
   "黴": 7957,
   "鼋": 7958,
   "鼎": 7959,
   "鼐": 7960,
   "鼓": 7961,
   "鼠": 7962,
   "鼬": 7963,
   "鼹": 7964,
   "鼻": 7965,
   "鼾": 7966,
   "齁": 7967,
   "齊": 7968,
   "齋": 7969,
   "齐": 7970,
   "齒": 7971,
   "齡": 7972,
   "齢": 7973,
   "齣": 7974,
   "齦": 7975,
   "齿": 7976,
   "龄": 7977,
   "龅": 7978,
   "龈": 7979,
   "龊": 7980,
   "龋": 7981,
   "龌": 7982,
   "龍": 7983,
   "龐": 7984,
   "龔": 7985,
   "龕": 7986,
   "龙": 7987,
   "龚": 7988,
   "龛": 7989,
   "龜": 7990,
   "龟": 7991,
   "︰": 7992,
   "︱": 7993,
   "︶": 7994,
   "︿": 7995,
   "﹁": 7996,
   "﹂": 7997,
   "﹍": 7998,
   "﹏": 7999,
   "﹐": 8000,
   "﹑": 8001,
   "﹒": 8002,
   "﹔": 8003,
   "﹕": 8004,
   "﹖": 8005,
   "﹗": 8006,
   "﹙": 8007,
   "﹚": 8008,
   "﹝": 8009,
   "﹞": 8010,
   "﹡": 8011,
   "﹣": 8012,
   "！": 8013,
   "＂": 8014,
   "＃": 8015,
   "＄": 8016,
   "％": 8017,
   "＆": 8018,
   "＇": 8019,
   "（": 8020,
   "）": 8021,
   "＊": 8022,
   "＋": 8023,
   "，": 8024,
   "－": 8025,
   "．": 8026,
   "／": 8027,
   "０": 8028,
   "１": 8029,
   "２": 8030,
   "３": 8031,
   "４": 8032,
   "５": 8033,
   "６": 8034,
   "７": 8035,
   "８": 8036,
   "９": 8037,
   "：": 8038,
   "；": 8039,
   "＜": 8040,
   "＝": 8041,
   "＞": 8042,
   "？": 8043,
   "＠": 8044,
   "［": 8045,
   "＼": 8046,
   "］": 8047,
   "＾": 8048,
   "＿": 8049,
   "｀": 8050,
   "ａ": 8051,
   "ｂ": 8052,
   "ｃ": 8053,
   "ｄ": 8054,
   "ｅ": 8055,
   "ｆ": 8056,
   "ｇ": 8057,
   "ｈ": 8058,
   "ｉ": 8059,
   "ｊ": 8060,
   "ｋ": 8061,
   "ｌ": 8062,
   "ｍ": 8063,
   "ｎ": 8064,
   "ｏ": 8065,
   "ｐ": 8066,
   "ｑ": 8067,
   "ｒ": 8068,
   "ｓ": 8069,
   "ｔ": 8070,
   "ｕ": 8071,
   "ｖ": 8072,
   "ｗ": 8073,
   "ｘ": 8074,
   "ｙ": 8075,
   "ｚ": 8076,
   "｛": 8077,
   "｜": 8078,
   "｝": 8079,
   "～": 8080,
   "｡": 8081,
   "｢": 8082,
   "｣": 8083,
   "､": 8084,
   "･": 8085,
   "ｯ": 8086,
   "ｰ": 8087,
   "ｲ": 8088,
   "ｸ": 8089,
   "ｼ": 8090,
   "ｽ": 8091,
   "ﾄ": 8092,
   "ﾉ": 8093,
   "ﾌ": 8094,
   "ﾗ": 8095,
   "ﾙ": 8096,
   "ﾝ": 8097,
   "ﾞ": 8098,
   "ﾟ": 8099,
   "￣": 8100,
   "￥": 8101,
   "👍": 8102,
   "🔥": 8103,
   "😂": 8104,
   "😎": 8105,
   "...": 8106,
   "yam": 8107,
   "10": 8108,
   "2017": 8109,
   "12": 8110,
   "11": 8111,
   "2016": 8112,
   "20": 8113,
   "30": 8114,
   "15": 8115,
   "06": 8116,
   "lofter": 8117,
   "##s": 8118,
   "2015": 8119,
   "by": 8120,
   "16": 8121,
   "14": 8122,
   "18": 8123,
   "13": 8124,
   "24": 8125,
   "17": 8126,
   "2014": 8127,
   "21": 8128,
   "##0": 8129,
   "22": 8130,
   "19": 8131,
   "25": 8132,
   "23": 8133,
   "com": 8134,
   "100": 8135,
   "00": 8136,
   "05": 8137,
   "2013": 8138,
   "##a": 8139,
   "03": 8140,
   "09": 8141,
   "08": 8142,
   "28": 8143,
   "##2": 8144,
   "50": 8145,
   "01": 8146,
   "04": 8147,
   "##1": 8148,
   "27": 8149,
   "02": 8150,
   "2012": 8151,
   "##3": 8152,
   "26": 8153,
   "##e": 8154,
   "07": 8155,
   "##8": 8156,
   "##5": 8157,
   "##6": 8158,
   "##4": 8159,
   "##9": 8160,
   "##7": 8161,
   "29": 8162,
   "2011": 8163,
   "40": 8164,
   "##t": 8165,
   "2010": 8166,
   "##o": 8167,
   "##d": 8168,
   "##i": 8169,
   "2009": 8170,
   "##n": 8171,
   "app": 8172,
   "www": 8173,
   "the": 8174,
   "##m": 8175,
   "31": 8176,
   "##c": 8177,
   "##l": 8178,
   "##y": 8179,
   "##r": 8180,
   "##g": 8181,
   "2008": 8182,
   "60": 8183,
   "http": 8184,
   "200": 8185,
   "qq": 8186,
   "##p": 8187,
   "80": 8188,
   "##f": 8189,
   "google": 8190,
   "pixnet": 8191,
   "90": 8192,
   "cookies": 8193,
   "tripadvisor": 8194,
   "500": 8195,
   "##er": 8196,
   "##k": 8197,
   "35": 8198,
   "##h": 8199,
   "facebook": 8200,
   "2007": 8201,
   "2000": 8202,
   "70": 8203,
   "##b": 8204,
   "of": 8205,
   "##x": 8206,
   "##u": 8207,
   "45": 8208,
   "300": 8209,
   "iphone": 8210,
   "32": 8211,
   "1000": 8212,
   "2006": 8213,
   "48": 8214,
   "ip": 8215,
   "36": 8216,
   "in": 8217,
   "38": 8218,
   "3d": 8219,
   "##w": 8220,
   "##ing": 8221,
   "55": 8222,
   "ctrip": 8223,
   "##on": 8224,
   "##v": 8225,
   "33": 8226,
   "##の": 8227,
   "to": 8228,
   "34": 8229,
   "400": 8230,
   "id": 8231,
   "2005": 8232,
   "it": 8233,
   "37": 8234,
   "windows": 8235,
   "llc": 8236,
   "top": 8237,
   "99": 8238,
   "42": 8239,
   "39": 8240,
   "000": 8241,
   "led": 8242,
   "at": 8243,
   "##an": 8244,
   "41": 8245,
   "51": 8246,
   "52": 8247,
   "46": 8248,
   "49": 8249,
   "43": 8250,
   "53": 8251,
   "44": 8252,
   "##z": 8253,
   "android": 8254,
   "58": 8255,
   "and": 8256,
   "59": 8257,
   "2004": 8258,
   "56": 8259,
   "vr": 8260,
   "##か": 8261,
   "5000": 8262,
   "2003": 8263,
   "47": 8264,
   "blogthis": 8265,
   "twitter": 8266,
   "54": 8267,
   "##le": 8268,
   "150": 8269,
   "ok": 8270,
   "2018": 8271,
   "57": 8272,
   "75": 8273,
   "cn": 8274,
   "no": 8275,
   "ios": 8276,
   "##in": 8277,
   "##mm": 8278,
   "##00": 8279,
   "800": 8280,
   "on": 8281,
   "te": 8282,
   "3000": 8283,
   "65": 8284,
   "2001": 8285,
   "360": 8286,
   "95": 8287,
   "ig": 8288,
   "lv": 8289,
   "120": 8290,
   "##ng": 8291,
   "##を": 8292,
   "##us": 8293,
   "##に": 8294,
   "pc": 8295,
   "てす": 8296,
   "──": 8297,
   "600": 8298,
   "##te": 8299,
   "85": 8300,
   "2002": 8301,
   "88": 8302,
   "##ed": 8303,
   "html": 8304,
   "ncc": 8305,
   "wifi": 8306,
   "email": 8307,
   "64": 8308,
   "blog": 8309,
   "is": 8310,
   "##10": 8311,
   "##て": 8312,
   "mail": 8313,
   "online": 8314,
   "##al": 8315,
   "dvd": 8316,
   "##ic": 8317,
   "studio": 8318,
   "##は": 8319,
   "##℃": 8320,
   "##ia": 8321,
   "##と": 8322,
   "line": 8323,
   "vip": 8324,
   "72": 8325,
   "##q": 8326,
   "98": 8327,
   "##ce": 8328,
   "##en": 8329,
   "for": 8330,
   "##is": 8331,
   "##ra": 8332,
   "##es": 8333,
   "##j": 8334,
   "usb": 8335,
   "net": 8336,
   "cp": 8337,
   "1999": 8338,
   "asia": 8339,
   "4g": 8340,
   "##cm": 8341,
   "diy": 8342,
   "new": 8343,
   "3c": 8344,
   "##お": 8345,
   "ta": 8346,
   "66": 8347,
   "language": 8348,
   "vs": 8349,
   "apple": 8350,
   "tw": 8351,
   "86": 8352,
   "web": 8353,
   "##ne": 8354,
   "ipad": 8355,
   "62": 8356,
   "you": 8357,
   "##re": 8358,
   "101": 8359,
   "68": 8360,
   "##tion": 8361,
   "ps": 8362,
   "de": 8363,
   "bt": 8364,
   "pony": 8365,
   "atm": 8366,
   "##2017": 8367,
   "1998": 8368,
   "67": 8369,
   "##ch": 8370,
   "ceo": 8371,
   "##or": 8372,
   "go": 8373,
   "##na": 8374,
   "av": 8375,
   "pro": 8376,
   "cafe": 8377,
   "96": 8378,
   "pinterest": 8379,
   "97": 8380,
   "63": 8381,
   "pixstyleme3c": 8382,
   "##ta": 8383,
   "more": 8384,
   "said": 8385,
   "##2016": 8386,
   "1997": 8387,
   "mp3": 8388,
   "700": 8389,
   "##ll": 8390,
   "nba": 8391,
   "jun": 8392,
   "##20": 8393,
   "92": 8394,
   "tv": 8395,
   "1995": 8396,
   "pm": 8397,
   "61": 8398,
   "76": 8399,
   "nbsp": 8400,
   "250": 8401,
   "##ie": 8402,
   "linux": 8403,
   "##ma": 8404,
   "cd": 8405,
   "110": 8406,
   "hd": 8407,
   "##17": 8408,
   "78": 8409,
   "##ion": 8410,
   "77": 8411,
   "6000": 8412,
   "am": 8413,
   "##th": 8414,
   "##st": 8415,
   "94": 8416,
   "##se": 8417,
   "##et": 8418,
   "69": 8419,
   "180": 8420,
   "gdp": 8421,
   "my": 8422,
   "105": 8423,
   "81": 8424,
   "abc": 8425,
   "89": 8426,
   "flash": 8427,
   "79": 8428,
   "one": 8429,
   "93": 8430,
   "1990": 8431,
   "1996": 8432,
   "##ck": 8433,
   "gps": 8434,
   "##も": 8435,
   "##ly": 8436,
   "web885": 8437,
   "106": 8438,
   "2020": 8439,
   "91": 8440,
   "##ge": 8441,
   "4000": 8442,
   "1500": 8443,
   "xd": 8444,
   "boss": 8445,
   "isbn": 8446,
   "1994": 8447,
   "org": 8448,
   "##ry": 8449,
   "me": 8450,
   "love": 8451,
   "##11": 8452,
   "0fork": 8453,
   "73": 8454,
   "##12": 8455,
   "3g": 8456,
   "##ter": 8457,
   "##ar": 8458,
   "71": 8459,
   "82": 8460,
   "##la": 8461,
   "hotel": 8462,
   "130": 8463,
   "1970": 8464,
   "pk": 8465,
   "83": 8466,
   "87": 8467,
   "140": 8468,
   "ie": 8469,
   "##os": 8470,
   "##30": 8471,
   "##el": 8472,
   "74": 8473,
   "##50": 8474,
   "seo": 8475,
   "cpu": 8476,
   "##ml": 8477,
   "p2p": 8478,
   "84": 8479,
   "may": 8480,
   "##る": 8481,
   "sun": 8482,
   "tue": 8483,
   "internet": 8484,
   "cc": 8485,
   "posted": 8486,
   "youtube": 8487,
   "##at": 8488,
   "##ン": 8489,
   "##man": 8490,
   "ii": 8491,
   "##ル": 8492,
   "##15": 8493,
   "abs": 8494,
   "nt": 8495,
   "pdf": 8496,
   "yahoo": 8497,
   "ago": 8498,
   "1980": 8499,
   "##it": 8500,
   "news": 8501,
   "mac": 8502,
   "104": 8503,
   "##てす": 8504,
   "##me": 8505,
   "##り": 8506,
   "java": 8507,
   "1992": 8508,
   "spa": 8509,
   "##de": 8510,
   "##nt": 8511,
   "hk": 8512,
   "all": 8513,
   "plus": 8514,
   "la": 8515,
   "1993": 8516,
   "##mb": 8517,
   "##16": 8518,
   "##ve": 8519,
   "west": 8520,
   "##da": 8521,
   "160": 8522,
   "air": 8523,
   "##い": 8524,
   "##ps": 8525,
   "から": 8526,
   "##to": 8527,
   "1989": 8528,
   "logo": 8529,
   "htc": 8530,
   "php": 8531,
   "https": 8532,
   "fi": 8533,
   "momo": 8534,
   "##son": 8535,
   "sat": 8536,
   "##ke": 8537,
   "##80": 8538,
   "ebd": 8539,
   "suv": 8540,
   "wi": 8541,
   "day": 8542,
   "apk": 8543,
   "##88": 8544,
   "##um": 8545,
   "mv": 8546,
   "galaxy": 8547,
   "wiki": 8548,
   "or": 8549,
   "brake": 8550,
   "##ス": 8551,
   "1200": 8552,
   "する": 8553,
   "this": 8554,
   "1991": 8555,
   "mon": 8556,
   "##こ": 8557,
   "❤2017": 8558,
   "po": 8559,
   "##ない": 8560,
   "javascript": 8561,
   "life": 8562,
   "home": 8563,
   "june": 8564,
   "##ss": 8565,
   "system": 8566,
   "900": 8567,
   "##ー": 8568,
   "##０": 8569,
   "pp": 8570,
   "1988": 8571,
   "world": 8572,
   "fb": 8573,
   "4k": 8574,
   "br": 8575,
   "##as": 8576,
   "ic": 8577,
   "ai": 8578,
   "leonardo": 8579,
   "safari": 8580,
   "##60": 8581,
   "live": 8582,
   "free": 8583,
   "xx": 8584,
   "wed": 8585,
   "win7": 8586,
   "kiehl": 8587,
   "##co": 8588,
   "lg": 8589,
   "o2o": 8590,
   "##go": 8591,
   "us": 8592,
   "235": 8593,
   "1949": 8594,
   "mm": 8595,
   "しい": 8596,
   "vfm": 8597,
   "kanye": 8598,
   "##90": 8599,
   "##2015": 8600,
   "##id": 8601,
   "jr": 8602,
   "##ey": 8603,
   "123": 8604,
   "rss": 8605,
   "##sa": 8606,
   "##ro": 8607,
   "##am": 8608,
   "##no": 8609,
   "thu": 8610,
   "fri": 8611,
   "350": 8612,
   "##sh": 8613,
   "##ki": 8614,
   "103": 8615,
   "comments": 8616,
   "name": 8617,
   "##のて": 8618,
   "##pe": 8619,
   "##ine": 8620,
   "max": 8621,
   "1987": 8622,
   "8000": 8623,
   "uber": 8624,
   "##mi": 8625,
   "##ton": 8626,
   "wordpress": 8627,
   "office": 8628,
   "1986": 8629,
   "1985": 8630,
   "##ment": 8631,
   "107": 8632,
   "bd": 8633,
   "win10": 8634,
   "##ld": 8635,
   "##li": 8636,
   "gmail": 8637,
   "bb": 8638,
   "dior": 8639,
   "##rs": 8640,
   "##ri": 8641,
   "##rd": 8642,
   "##ます": 8643,
   "up": 8644,
   "cad": 8645,
   "##®": 8646,
   "dr": 8647,
   "して": 8648,
   "read": 8649,
   "##21": 8650,
   "をお": 8651,
   "##io": 8652,
   "##99": 8653,
   "url": 8654,
   "1984": 8655,
   "pvc": 8656,
   "paypal": 8657,
   "show": 8658,
   "policy": 8659,
   "##40": 8660,
   "##ty": 8661,
   "##18": 8662,
   "with": 8663,
   "##★": 8664,
   "##01": 8665,
   "txt": 8666,
   "102": 8667,
   "##ba": 8668,
   "dna": 8669,
   "from": 8670,
   "post": 8671,
   "mini": 8672,
   "ar": 8673,
   "taiwan": 8674,
   "john": 8675,
   "##ga": 8676,
   "privacy": 8677,
   "agoda": 8678,
   "##13": 8679,
   "##ny": 8680,
   "word": 8681,
   "##24": 8682,
   "##22": 8683,
   "##by": 8684,
   "##ur": 8685,
   "##hz": 8686,
   "1982": 8687,
   "##ang": 8688,
   "265": 8689,
   "cookie": 8690,
   "netscape": 8691,
   "108": 8692,
   "##ka": 8693,
   "##～": 8694,
   "##ad": 8695,
   "house": 8696,
   "share": 8697,
   "note": 8698,
   "ibm": 8699,
   "code": 8700,
   "hello": 8701,
   "nike": 8702,
   "sim": 8703,
   "survey": 8704,
   "##016": 8705,
   "1979": 8706,
   "1950": 8707,
   "wikia": 8708,
   "##32": 8709,
   "##017": 8710,
   "5g": 8711,
   "cbc": 8712,
   "##tor": 8713,
   "##kg": 8714,
   "1983": 8715,
   "##rt": 8716,
   "##14": 8717,
   "campaign": 8718,
   "store": 8719,
   "2500": 8720,
   "os": 8721,
   "##ct": 8722,
   "##ts": 8723,
   "##°": 8724,
   "170": 8725,
   "api": 8726,
   "##ns": 8727,
   "365": 8728,
   "excel": 8729,
   "##な": 8730,
   "##ao": 8731,
   "##ら": 8732,
   "##し": 8733,
   "～～": 8734,
   "##nd": 8735,
   "university": 8736,
   "163": 8737,
   "には": 8738,
   "518": 8739,
   "##70": 8740,
   "##ya": 8741,
   "##il": 8742,
   "##25": 8743,
   "pierre": 8744,
   "ipo": 8745,
   "0020": 8746,
   "897": 8747,
   "##23": 8748,
   "hotels": 8749,
   "##ian": 8750,
   "のお": 8751,
   "125": 8752,
   "years": 8753,
   "6606": 8754,
   "##ers": 8755,
   "##26": 8756,
   "high": 8757,
   "##day": 8758,
   "time": 8759,
   "##ay": 8760,
   "bug": 8761,
   "##line": 8762,
   "##く": 8763,
   "##す": 8764,
   "##be": 8765,
   "xp": 8766,
   "talk2yam": 8767,
   "yamservice": 8768,
   "10000": 8769,
   "coco": 8770,
   "##dy": 8771,
   "sony": 8772,
   "##ies": 8773,
   "1978": 8774,
   "microsoft": 8775,
   "david": 8776,
   "people": 8777,
   "##ha": 8778,
   "1960": 8779,
   "instagram": 8780,
   "intel": 8781,
   "その": 8782,
   "##ot": 8783,
   "iso": 8784,
   "1981": 8785,
   "##va": 8786,
   "115": 8787,
   "##mo": 8788,
   "##land": 8789,
   "xxx": 8790,
   "man": 8791,
   "co": 8792,
   "ltxsw": 8793,
   "##ation": 8794,
   "baby": 8795,
   "220": 8796,
   "##pa": 8797,
   "##ol": 8798,
   "1945": 8799,
   "7000": 8800,
   "tag": 8801,
   "450": 8802,
   "##ue": 8803,
   "msn": 8804,
   "##31": 8805,
   "oppo": 8806,
   "##ト": 8807,
   "##ca": 8808,
   "control": 8809,
   "##om": 8810,
   "st": 8811,
   "chrome": 8812,
   "##ure": 8813,
   "##ん": 8814,
   "be": 8815,
   "##き": 8816,
   "lol": 8817,
   "##19": 8818,
   "した": 8819,
   "##bo": 8820,
   "240": 8821,
   "lady": 8822,
   "##100": 8823,
   "##way": 8824,
   "##から": 8825,
   "4600": 8826,
   "##ko": 8827,
   "##do": 8828,
   "##un": 8829,
   "4s": 8830,
   "corporation": 8831,
   "168": 8832,
   "##ni": 8833,
   "herme": 8834,
   "##28": 8835,
   "ｃｐ": 8836,
   "978": 8837,
   "##up": 8838,
   "##06": 8839,
   "ui": 8840,
   "##ds": 8841,
   "ppt": 8842,
   "admin": 8843,
   "three": 8844,
   "します": 8845,
   "bbc": 8846,
   "re": 8847,
   "128": 8848,
   "##48": 8849,
   "ca": 8850,
   "##015": 8851,
   "##35": 8852,
   "hp": 8853,
   "##ee": 8854,
   "tpp": 8855,
   "##た": 8856,
   "##ive": 8857,
   "××": 8858,
   "root": 8859,
   "##cc": 8860,
   "##ました": 8861,
   "##ble": 8862,
   "##ity": 8863,
   "adobe": 8864,
   "park": 8865,
   "114": 8866,
   "et": 8867,
   "oled": 8868,
   "city": 8869,
   "##ex": 8870,
   "##ler": 8871,
   "##ap": 8872,
   "china": 8873,
   "##book": 8874,
   "20000": 8875,
   "view": 8876,
   "##ice": 8877,
   "global": 8878,
   "##km": 8879,
   "your": 8880,
   "hong": 8881,
   "##mg": 8882,
   "out": 8883,
   "##ms": 8884,
   "ng": 8885,
   "ebay": 8886,
   "##29": 8887,
   "menu": 8888,
   "ubuntu": 8889,
   "##cy": 8890,
   "rom": 8891,
   "##view": 8892,
   "open": 8893,
   "ktv": 8894,
   "do": 8895,
   "server": 8896,
   "##lo": 8897,
   "if": 8898,
   "english": 8899,
   "##ね": 8900,
   "##５": 8901,
   "##oo": 8902,
   "1600": 8903,
   "##02": 8904,
   "step1": 8905,
   "kong": 8906,
   "club": 8907,
   "135": 8908,
   "july": 8909,
   "inc": 8910,
   "1976": 8911,
   "mr": 8912,
   "hi": 8913,
   "##net": 8914,
   "touch": 8915,
   "##ls": 8916,
   "##ii": 8917,
   "michael": 8918,
   "lcd": 8919,
   "##05": 8920,
   "##33": 8921,
   "phone": 8922,
   "james": 8923,
   "step2": 8924,
   "1300": 8925,
   "ios9": 8926,
   "##box": 8927,
   "dc": 8928,
   "##２": 8929,
   "##ley": 8930,
   "samsung": 8931,
   "111": 8932,
   "280": 8933,
   "pokemon": 8934,
   "css": 8935,
   "##ent": 8936,
   "##les": 8937,
   "いいえ": 8938,
   "##１": 8939,
   "s8": 8940,
   "atom": 8941,
   "play": 8942,
   "bmw": 8943,
   "##said": 8944,
   "sa": 8945,
   "etf": 8946,
   "ctrl": 8947,
   "♥yoyo♥": 8948,
   "##55": 8949,
   "2025": 8950,
   "##2014": 8951,
   "##66": 8952,
   "adidas": 8953,
   "amazon": 8954,
   "1958": 8955,
   "##ber": 8956,
   "##ner": 8957,
   "visa": 8958,
   "##77": 8959,
   "##der": 8960,
   "1800": 8961,
   "connectivity": 8962,
   "##hi": 8963,
   "firefox": 8964,
   "109": 8965,
   "118": 8966,
   "hr": 8967,
   "so": 8968,
   "style": 8969,
   "mark": 8970,
   "pop": 8971,
   "ol": 8972,
   "skip": 8973,
   "1975": 8974,
   "as": 8975,
   "##27": 8976,
   "##ir": 8977,
   "##61": 8978,
   "190": 8979,
   "mba": 8980,
   "##う": 8981,
   "##ai": 8982,
   "le": 8983,
   "##ver": 8984,
   "1900": 8985,
   "cafe2017": 8986,
   "lte": 8987,
   "super": 8988,
   "113": 8989,
   "129": 8990,
   "##ron": 8991,
   "amd": 8992,
   "like": 8993,
   "##☆": 8994,
   "are": 8995,
   "##ster": 8996,
   "we": 8997,
   "##sk": 8998,
   "paul": 8999,
   "data": 9000,
   "international": 9001,
   "##ft": 9002,
   "longchamp": 9003,
   "ssd": 9004,
   "good": 9005,
   "##ート": 9006,
   "##ti": 9007,
   "reply": 9008,
   "##my": 9009,
   "↓↓↓": 9010,
   "apr": 9011,
   "star": 9012,
   "##ker": 9013,
   "source": 9014,
   "136": 9015,
   "js": 9016,
   "112": 9017,
   "get": 9018,
   "force": 9019,
   "photo": 9020,
   "##one": 9021,
   "126": 9022,
   "##2013": 9023,
   "##ow": 9024,
   "link": 9025,
   "bbs": 9026,
   "1972": 9027,
   "goods": 9028,
   "##lin": 9029,
   "python": 9030,
   "119": 9031,
   "##ip": 9032,
   "game": 9033,
   "##ics": 9034,
   "##ません": 9035,
   "blue": 9036,
   "##●": 9037,
   "520": 9038,
   "##45": 9039,
   "page": 9040,
   "itunes": 9041,
   "##03": 9042,
   "1955": 9043,
   "260": 9044,
   "1968": 9045,
   "gt": 9046,
   "gif": 9047,
   "618": 9048,
   "##ff": 9049,
   "##47": 9050,
   "group": 9051,
   "くたさい": 9052,
   "about": 9053,
   "bar": 9054,
   "ganji": 9055,
   "##nce": 9056,
   "music": 9057,
   "lee": 9058,
   "not": 9059,
   "1977": 9060,
   "1971": 9061,
   "1973": 9062,
   "##per": 9063,
   "an": 9064,
   "faq": 9065,
   "comment": 9066,
   "##って": 9067,
   "days": 9068,
   "##ock": 9069,
   "116": 9070,
   "##bs": 9071,
   "1974": 9072,
   "1969": 9073,
   "v1": 9074,
   "player": 9075,
   "1956": 9076,
   "xbox": 9077,
   "sql": 9078,
   "fm": 9079,
   "f1": 9080,
   "139": 9081,
   "##ah": 9082,
   "210": 9083,
   "##lv": 9084,
   "##mp": 9085,
   "##000": 9086,
   "melody": 9087,
   "1957": 9088,
   "##３": 9089,
   "550": 9090,
   "17life": 9091,
   "199": 9092,
   "1966": 9093,
   "xml": 9094,
   "market": 9095,
   "##au": 9096,
   "##71": 9097,
   "999": 9098,
   "##04": 9099,
   "what": 9100,
   "gl": 9101,
   "##95": 9102,
   "##age": 9103,
   "tips": 9104,
   "##68": 9105,
   "book": 9106,
   "##ting": 9107,
   "mysql": 9108,
   "can": 9109,
   "1959": 9110,
   "230": 9111,
   "##ung": 9112,
   "wonderland": 9113,
   "watch": 9114,
   "10℃": 9115,
   "##ction": 9116,
   "9000": 9117,
   "mar": 9118,
   "mobile": 9119,
   "1946": 9120,
   "1962": 9121,
   "article": 9122,
   "##db": 9123,
   "part": 9124,
   "▲top": 9125,
   "party": 9126,
   "って": 9127,
   "1967": 9128,
   "1964": 9129,
   "1948": 9130,
   "##07": 9131,
   "##ore": 9132,
   "##op": 9133,
   "この": 9134,
   "dj": 9135,
   "##78": 9136,
   "##38": 9137,
   "010": 9138,
   "main": 9139,
   "225": 9140,
   "1965": 9141,
   "##ong": 9142,
   "art": 9143,
   "320": 9144,
   "ad": 9145,
   "134": 9146,
   "020": 9147,
   "##73": 9148,
   "117": 9149,
   "pm2": 9150,
   "japan": 9151,
   "228": 9152,
   "##08": 9153,
   "ts": 9154,
   "1963": 9155,
   "##ica": 9156,
   "der": 9157,
   "sm": 9158,
   "##36": 9159,
   "2019": 9160,
   "##wa": 9161,
   "ct": 9162,
   "##７": 9163,
   "##や": 9164,
   "##64": 9165,
   "1937": 9166,
   "homemesh": 9167,
   "search": 9168,
   "##85": 9169,
   "##れは": 9170,
   "##tv": 9171,
   "##di": 9172,
   "macbook": 9173,
   "##９": 9174,
   "##くたさい": 9175,
   "service": 9176,
   "##♥": 9177,
   "type": 9178,
   "った": 9179,
   "750": 9180,
   "##ier": 9181,
   "##si": 9182,
   "##75": 9183,
   "##います": 9184,
   "##ok": 9185,
   "best": 9186,
   "##ット": 9187,
   "goris": 9188,
   "lock": 9189,
   "##った": 9190,
   "cf": 9191,
   "3m": 9192,
   "big": 9193,
   "##ut": 9194,
   "ftp": 9195,
   "carol": 9196,
   "##vi": 9197,
   "１０": 9198,
   "1961": 9199,
   "happy": 9200,
   "sd": 9201,
   "##ac": 9202,
   "122": 9203,
   "anti": 9204,
   "pe": 9205,
   "cnn": 9206,
   "iii": 9207,
   "1920": 9208,
   "138": 9209,
   "##ラ": 9210,
   "1940": 9211,
   "esp": 9212,
   "jan": 9213,
   "tags": 9214,
   "##98": 9215,
   "##51": 9216,
   "august": 9217,
   "vol": 9218,
   "##86": 9219,
   "154": 9220,
   "##™": 9221,
   "##fs": 9222,
   "##れ": 9223,
   "##sion": 9224,
   "design": 9225,
   "ac": 9226,
   "##ム": 9227,
   "press": 9228,
   "jordan": 9229,
   "ppp": 9230,
   "that": 9231,
   "key": 9232,
   "check": 9233,
   "##６": 9234,
   "##tt": 9235,
   "##㎡": 9236,
   "1080p": 9237,
   "##lt": 9238,
   "power": 9239,
   "##42": 9240,
   "1952": 9241,
   "##bc": 9242,
   "vivi": 9243,
   "##ック": 9244,
   "he": 9245,
   "133": 9246,
   "121": 9247,
   "jpg": 9248,
   "##rry": 9249,
   "201": 9250,
   "175": 9251,
   "3500": 9252,
   "1947": 9253,
   "nb": 9254,
   "##ted": 9255,
   "##rn": 9256,
   "しています": 9257,
   "1954": 9258,
   "usd": 9259,
   "##t00": 9260,
   "master": 9261,
   "##ンク": 9262,
   "001": 9263,
   "model": 9264,
   "##58": 9265,
   "al": 9266,
   "##09": 9267,
   "1953": 9268,
   "##34": 9269,
   "ram": 9270,
   "goo": 9271,
   "ても": 9272,
   "##ui": 9273,
   "127": 9274,
   "1930": 9275,
   "red": 9276,
   "##ary": 9277,
   "rpg": 9278,
   "item": 9279,
   "##pm": 9280,
   "##41": 9281,
   "270": 9282,
   "##za": 9283,
   "project": 9284,
   "##2012": 9285,
   "hot": 9286,
   "td": 9287,
   "blogabstract": 9288,
   "##ger": 9289,
   "##62": 9290,
   "650": 9291,
   "##44": 9292,
   "gr2": 9293,
   "##します": 9294,
   "##ｍ": 9295,
   "black": 9296,
   "electronic": 9297,
   "nfc": 9298,
   "year": 9299,
   "asus": 9300,
   "また": 9301,
   "html5": 9302,
   "cindy": 9303,
   "##hd": 9304,
   "m3": 9305,
   "132": 9306,
   "esc": 9307,
   "##od": 9308,
   "booking": 9309,
   "##53": 9310,
   "fed": 9311,
   "tvb": 9312,
   "##81": 9313,
   "##ina": 9314,
   "mit": 9315,
   "165": 9316,
   "##いる": 9317,
   "chan": 9318,
   "192": 9319,
   "distribution": 9320,
   "next": 9321,
   "になる": 9322,
   "peter": 9323,
   "bios": 9324,
   "steam": 9325,
   "cm": 9326,
   "1941": 9327,
   "にも": 9328,
   "pk10": 9329,
   "##ix": 9330,
   "##65": 9331,
   "##91": 9332,
   "dec": 9333,
   "nasa": 9334,
   "##ana": 9335,
   "icecat": 9336,
   "00z": 9337,
   "b1": 9338,
   "will": 9339,
   "##46": 9340,
   "li": 9341,
   "se": 9342,
   "##ji": 9343,
   "##み": 9344,
   "##ard": 9345,
   "oct": 9346,
   "##ain": 9347,
   "jp": 9348,
   "##ze": 9349,
   "##bi": 9350,
   "cio": 9351,
   "##56": 9352,
   "smart": 9353,
   "h5": 9354,
   "##39": 9355,
   "##port": 9356,
   "curve": 9357,
   "vpn": 9358,
   "##nm": 9359,
   "##dia": 9360,
   "utc": 9361,
   "##あり": 9362,
   "12345678910": 9363,
   "##52": 9364,
   "rmvb": 9365,
   "chanel": 9366,
   "a4": 9367,
   "miss": 9368,
   "##and": 9369,
   "##im": 9370,
   "media": 9371,
   "who": 9372,
   "##63": 9373,
   "she": 9374,
   "girl": 9375,
   "5s": 9376,
   "124": 9377,
   "vera": 9378,
   "##して": 9379,
   "class": 9380,
   "vivo": 9381,
   "king": 9382,
   "##フ": 9383,
   "##ei": 9384,
   "national": 9385,
   "ab": 9386,
   "1951": 9387,
   "5cm": 9388,
   "888": 9389,
   "145": 9390,
   "ipod": 9391,
   "ap": 9392,
   "1100": 9393,
   "5mm": 9394,
   "211": 9395,
   "ms": 9396,
   "2756": 9397,
   "##69": 9398,
   "mp4": 9399,
   "msci": 9400,
   "##po": 9401,
   "##89": 9402,
   "131": 9403,
   "mg": 9404,
   "index": 9405,
   "380": 9406,
   "##bit": 9407,
   "##out": 9408,
   "##zz": 9409,
   "##97": 9410,
   "##67": 9411,
   "158": 9412,
   "apec": 9413,
   "##８": 9414,
   "photoshop": 9415,
   "opec": 9416,
   "￥799": 9417,
   "ては": 9418,
   "##96": 9419,
   "##tes": 9420,
   "##ast": 9421,
   "2g": 9422,
   "○○": 9423,
   "##ール": 9424,
   "￥2899": 9425,
   "##ling": 9426,
   "##よ": 9427,
   "##ory": 9428,
   "1938": 9429,
   "##ical": 9430,
   "kitty": 9431,
   "content": 9432,
   "##43": 9433,
   "step3": 9434,
   "##cn": 9435,
   "win8": 9436,
   "155": 9437,
   "vc": 9438,
   "1400": 9439,
   "iphone7": 9440,
   "robert": 9441,
   "##した": 9442,
   "tcl": 9443,
   "137": 9444,
   "beauty": 9445,
   "##87": 9446,
   "en": 9447,
   "dollars": 9448,
   "##ys": 9449,
   "##oc": 9450,
   "step": 9451,
   "pay": 9452,
   "yy": 9453,
   "a1": 9454,
   "##2011": 9455,
   "##lly": 9456,
   "##ks": 9457,
   "##♪": 9458,
   "1939": 9459,
   "188": 9460,
   "download": 9461,
   "1944": 9462,
   "sep": 9463,
   "exe": 9464,
   "ph": 9465,
   "います": 9466,
   "school": 9467,
   "gb": 9468,
   "center": 9469,
   "pr": 9470,
   "street": 9471,
   "##board": 9472,
   "uv": 9473,
   "##37": 9474,
   "##lan": 9475,
   "winrar": 9476,
   "##que": 9477,
   "##ua": 9478,
   "##com": 9479,
   "1942": 9480,
   "1936": 9481,
   "480": 9482,
   "gpu": 9483,
   "##４": 9484,
   "ettoday": 9485,
   "fu": 9486,
   "tom": 9487,
   "##54": 9488,
   "##ren": 9489,
   "##via": 9490,
   "149": 9491,
   "##72": 9492,
   "b2b": 9493,
   "144": 9494,
   "##79": 9495,
   "##tch": 9496,
   "rose": 9497,
   "arm": 9498,
   "mb": 9499,
   "##49": 9500,
   "##ial": 9501,
   "##nn": 9502,
   "nvidia": 9503,
   "step4": 9504,
   "mvp": 9505,
   "00㎡": 9506,
   "york": 9507,
   "156": 9508,
   "##イ": 9509,
   "how": 9510,
   "cpi": 9511,
   "591": 9512,
   "2765": 9513,
   "gov": 9514,
   "kg": 9515,
   "joe": 9516,
   "##xx": 9517,
   "mandy": 9518,
   "pa": 9519,
   "##ser": 9520,
   "copyright": 9521,
   "fashion": 9522,
   "1935": 9523,
   "don": 9524,
   "##け": 9525,
   "ecu": 9526,
   "##ist": 9527,
   "##art": 9528,
   "erp": 9529,
   "wap": 9530,
   "have": 9531,
   "##lm": 9532,
   "talk": 9533,
   "##ek": 9534,
   "##ning": 9535,
   "##if": 9536,
   "ch": 9537,
   "##ite": 9538,
   "video": 9539,
   "1943": 9540,
   "cs": 9541,
   "san": 9542,
   "iot": 9543,
   "look": 9544,
   "##84": 9545,
   "##2010": 9546,
   "##ku": 9547,
   "october": 9548,
   "##ux": 9549,
   "trump": 9550,
   "##hs": 9551,
   "##ide": 9552,
   "box": 9553,
   "141": 9554,
   "first": 9555,
   "##ins": 9556,
   "april": 9557,
   "##ight": 9558,
   "##83": 9559,
   "185": 9560,
   "angel": 9561,
   "protected": 9562,
   "aa": 9563,
   "151": 9564,
   "162": 9565,
   "x1": 9566,
   "m2": 9567,
   "##fe": 9568,
   "##×": 9569,
   "##ho": 9570,
   "size": 9571,
   "143": 9572,
   "min": 9573,
   "ofo": 9574,
   "fun": 9575,
   "gomaji": 9576,
   "ex": 9577,
   "hdmi": 9578,
   "food": 9579,
   "dns": 9580,
   "march": 9581,
   "chris": 9582,
   "kevin": 9583,
   "##のか": 9584,
   "##lla": 9585,
   "##pp": 9586,
   "##ec": 9587,
   "ag": 9588,
   "ems": 9589,
   "6s": 9590,
   "720p": 9591,
   "##rm": 9592,
   "##ham": 9593,
   "off": 9594,
   "##92": 9595,
   "asp": 9596,
   "team": 9597,
   "fandom": 9598,
   "ed": 9599,
   "299": 9600,
   "▌♥": 9601,
   "##ell": 9602,
   "info": 9603,
   "されています": 9604,
   "##82": 9605,
   "sina": 9606,
   "4066": 9607,
   "161": 9608,
   "##able": 9609,
   "##ctor": 9610,
   "330": 9611,
   "399": 9612,
   "315": 9613,
   "dll": 9614,
   "rights": 9615,
   "ltd": 9616,
   "idc": 9617,
   "jul": 9618,
   "3kg": 9619,
   "1927": 9620,
   "142": 9621,
   "ma": 9622,
   "surface": 9623,
   "##76": 9624,
   "##ク": 9625,
   "～～～": 9626,
   "304": 9627,
   "mall": 9628,
   "eps": 9629,
   "146": 9630,
   "green": 9631,
   "##59": 9632,
   "map": 9633,
   "space": 9634,
   "donald": 9635,
   "v2": 9636,
   "sodu": 9637,
   "##light": 9638,
   "1931": 9639,
   "148": 9640,
   "1700": 9641,
   "まて": 9642,
   "310": 9643,
   "reserved": 9644,
   "htm": 9645,
   "##han": 9646,
   "##57": 9647,
   "2d": 9648,
   "178": 9649,
   "mod": 9650,
   "##ise": 9651,
   "##tions": 9652,
   "152": 9653,
   "ti": 9654,
   "##shi": 9655,
   "doc": 9656,
   "1933": 9657,
   "icp": 9658,
   "055": 9659,
   "wang": 9660,
   "##ram": 9661,
   "shopping": 9662,
   "aug": 9663,
   "##pi": 9664,
   "##well": 9665,
   "now": 9666,
   "wam": 9667,
   "b2": 9668,
   "からお": 9669,
   "##hu": 9670,
   "236": 9671,
   "1928": 9672,
   "##gb": 9673,
   "266": 9674,
   "f2": 9675,
   "##93": 9676,
   "153": 9677,
   "mix": 9678,
   "##ef": 9679,
   "##uan": 9680,
   "bwl": 9681,
   "##plus": 9682,
   "##res": 9683,
   "core": 9684,
   "##ess": 9685,
   "tea": 9686,
   "5℃": 9687,
   "hktvmall": 9688,
   "nhk": 9689,
   "##ate": 9690,
   "list": 9691,
   "##ese": 9692,
   "301": 9693,
   "feb": 9694,
   "4m": 9695,
   "inn": 9696,
   "ての": 9697,
   "nov": 9698,
   "159": 9699,
   "12345": 9700,
   "daniel": 9701,
   "##ci": 9702,
   "pass": 9703,
   "##bet": 9704,
   "##nk": 9705,
   "coffee": 9706,
   "202": 9707,
   "ssl": 9708,
   "airbnb": 9709,
   "##ute": 9710,
   "fbi": 9711,
   "woshipm": 9712,
   "skype": 9713,
   "ea": 9714,
   "cg": 9715,
   "sp": 9716,
   "##fc": 9717,
   "##www": 9718,
   "yes": 9719,
   "edge": 9720,
   "alt": 9721,
   "007": 9722,
   "##94": 9723,
   "fpga": 9724,
   "##ght": 9725,
   "##gs": 9726,
   "iso9001": 9727,
   "さい": 9728,
   "##ile": 9729,
   "##wood": 9730,
   "##uo": 9731,
   "image": 9732,
   "lin": 9733,
   "icon": 9734,
   "american": 9735,
   "##em": 9736,
   "1932": 9737,
   "set": 9738,
   "says": 9739,
   "##king": 9740,
   "##tive": 9741,
   "blogger": 9742,
   "##74": 9743,
   "なと": 9744,
   "256": 9745,
   "147": 9746,
   "##ox": 9747,
   "##zy": 9748,
   "##red": 9749,
   "##ium": 9750,
   "##lf": 9751,
   "nokia": 9752,
   "claire": 9753,
   "##リ": 9754,
   "##ding": 9755,
   "november": 9756,
   "lohas": 9757,
   "##500": 9758,
   "##tic": 9759,
   "##マ": 9760,
   "##cs": 9761,
   "##ある": 9762,
   "##che": 9763,
   "##ire": 9764,
   "##gy": 9765,
   "##ult": 9766,
   "db": 9767,
   "january": 9768,
   "win": 9769,
   "##カ": 9770,
   "166": 9771,
   "road": 9772,
   "ptt": 9773,
   "##ま": 9774,
   "##つ": 9775,
   "198": 9776,
   "##fa": 9777,
   "##mer": 9778,
   "anna": 9779,
   "pchome": 9780,
   "はい": 9781,
   "udn": 9782,
   "ef": 9783,
   "420": 9784,
   "##time": 9785,
   "##tte": 9786,
   "2030": 9787,
   "##ア": 9788,
   "g20": 9789,
   "white": 9790,
   "かかります": 9791,
   "1929": 9792,
   "308": 9793,
   "garden": 9794,
   "eleven": 9795,
   "di": 9796,
   "##おります": 9797,
   "chen": 9798,
   "309b": 9799,
   "777": 9800,
   "172": 9801,
   "young": 9802,
   "cosplay": 9803,
   "ちてない": 9804,
   "4500": 9805,
   "bat": 9806,
   "##123": 9807,
   "##tra": 9808,
   "##ては": 9809,
   "kindle": 9810,
   "npc": 9811,
   "steve": 9812,
   "etc": 9813,
   "##ern": 9814,
   "##｜": 9815,
   "call": 9816,
   "xperia": 9817,
   "ces": 9818,
   "travel": 9819,
   "sk": 9820,
   "s7": 9821,
   "##ous": 9822,
   "1934": 9823,
   "##int": 9824,
   "みいたたけます": 9825,
   "183": 9826,
   "edu": 9827,
   "file": 9828,
   "cho": 9829,
   "qr": 9830,
   "##car": 9831,
   "##our": 9832,
   "186": 9833,
   "##ant": 9834,
   "##ｄ": 9835,
   "eric": 9836,
   "1914": 9837,
   "rends": 9838,
   "##jo": 9839,
   "##する": 9840,
   "mastercard": 9841,
   "##2000": 9842,
   "kb": 9843,
   "##min": 9844,
   "290": 9845,
   "##ino": 9846,
   "vista": 9847,
   "##ris": 9848,
   "##ud": 9849,
   "jack": 9850,
   "2400": 9851,
   "##set": 9852,
   "169": 9853,
   "pos": 9854,
   "1912": 9855,
   "##her": 9856,
   "##ou": 9857,
   "taipei": 9858,
   "しく": 9859,
   "205": 9860,
   "beta": 9861,
   "##ませんか": 9862,
   "232": 9863,
   "##fi": 9864,
   "express": 9865,
   "255": 9866,
   "body": 9867,
   "##ill": 9868,
   "aphojoy": 9869,
   "user": 9870,
   "december": 9871,
   "meiki": 9872,
   "##ick": 9873,
   "tweet": 9874,
   "richard": 9875,
   "##av": 9876,
   "##ᆫ": 9877,
   "iphone6": 9878,
   "##dd": 9879,
   "ちてすか": 9880,
   "views": 9881,
   "##mark": 9882,
   "321": 9883,
   "pd": 9884,
   "##００": 9885,
   "times": 9886,
   "##▲": 9887,
   "level": 9888,
   "##ash": 9889,
   "10g": 9890,
   "point": 9891,
   "5l": 9892,
   "##ome": 9893,
   "208": 9894,
   "koreanmall": 9895,
   "##ak": 9896,
   "george": 9897,
   "q2": 9898,
   "206": 9899,
   "wma": 9900,
   "tcp": 9901,
   "##200": 9902,
   "スタッフ": 9903,
   "full": 9904,
   "mlb": 9905,
   "##lle": 9906,
   "##watch": 9907,
   "tm": 9908,
   "run": 9909,
   "179": 9910,
   "911": 9911,
   "smith": 9912,
   "business": 9913,
   "##und": 9914,
   "1919": 9915,
   "color": 9916,
   "##tal": 9917,
   "222": 9918,
   "171": 9919,
   "##less": 9920,
   "moon": 9921,
   "4399": 9922,
   "##rl": 9923,
   "update": 9924,
   "pcb": 9925,
   "shop": 9926,
   "499": 9927,
   "157": 9928,
   "little": 9929,
   "なし": 9930,
   "end": 9931,
   "##mhz": 9932,
   "van": 9933,
   "dsp": 9934,
   "easy": 9935,
   "660": 9936,
   "##house": 9937,
   "##key": 9938,
   "history": 9939,
   "##ｏ": 9940,
   "oh": 9941,
   "##001": 9942,
   "##hy": 9943,
   "##web": 9944,
   "oem": 9945,
   "let": 9946,
   "was": 9947,
   "##2009": 9948,
   "##gg": 9949,
   "review": 9950,
   "##wan": 9951,
   "182": 9952,
   "##°c": 9953,
   "203": 9954,
   "uc": 9955,
   "title": 9956,
   "##val": 9957,
   "united": 9958,
   "233": 9959,
   "2021": 9960,
   "##ons": 9961,
   "doi": 9962,
   "trivago": 9963,
   "overdope": 9964,
   "sbs": 9965,
   "##ance": 9966,
   "##ち": 9967,
   "grand": 9968,
   "special": 9969,
   "573032185": 9970,
   "imf": 9971,
   "216": 9972,
   "wx17house": 9973,
   "##so": 9974,
   "##ーム": 9975,
   "audi": 9976,
   "##he": 9977,
   "london": 9978,
   "william": 9979,
   "##rp": 9980,
   "##ake": 9981,
   "science": 9982,
   "beach": 9983,
   "cfa": 9984,
   "amp": 9985,
   "ps4": 9986,
   "880": 9987,
   "##800": 9988,
   "##link": 9989,
   "##hp": 9990,
   "crm": 9991,
   "ferragamo": 9992,
   "bell": 9993,
   "make": 9994,
   "##eng": 9995,
   "195": 9996,
   "under": 9997,
   "zh": 9998,
   "photos": 9999,
   "2300": 10000,
   "##style": 10001,
   "##ント": 10002,
   "via": 10003,
   "176": 10004,
   "da": 10005,
   "##gi": 10006,
   "company": 10007,
   "i7": 10008,
   "##ray": 10009,
   "thomas": 10010,
   "370": 10011,
   "ufo": 10012,
   "i5": 10013,
   "##max": 10014,
   "plc": 10015,
   "ben": 10016,
   "back": 10017,
   "research": 10018,
   "8g": 10019,
   "173": 10020,
   "mike": 10021,
   "##pc": 10022,
   "##ッフ": 10023,
   "september": 10024,
   "189": 10025,
   "##ace": 10026,
   "vps": 10027,
   "february": 10028,
   "167": 10029,
   "pantos": 10030,
   "wp": 10031,
   "lisa": 10032,
   "1921": 10033,
   "★★": 10034,
   "jquery": 10035,
   "night": 10036,
   "long": 10037,
   "offer": 10038,
   "##berg": 10039,
   "##news": 10040,
   "1911": 10041,
   "##いて": 10042,
   "ray": 10043,
   "fks": 10044,
   "wto": 10045,
   "せます": 10046,
   "over": 10047,
   "164": 10048,
   "340": 10049,
   "##all": 10050,
   "##rus": 10051,
   "1924": 10052,
   "##888": 10053,
   "##works": 10054,
   "blogtitle": 10055,
   "loftpermalink": 10056,
   "##→": 10057,
   "187": 10058,
   "martin": 10059,
   "test": 10060,
   "ling": 10061,
   "km": 10062,
   "##め": 10063,
   "15000": 10064,
   "fda": 10065,
   "v3": 10066,
   "##ja": 10067,
   "##ロ": 10068,
   "ｗedding": 10069,
   "かある": 10070,
   "outlet": 10071,
   "family": 10072,
   "##ea": 10073,
   "をこ": 10074,
   "##top": 10075,
   "story": 10076,
   "##ness": 10077,
   "salvatore": 10078,
   "##lu": 10079,
   "204": 10080,
   "swift": 10081,
   "215": 10082,
   "room": 10083,
   "している": 10084,
   "oracle": 10085,
   "##ul": 10086,
   "1925": 10087,
   "sam": 10088,
   "b2c": 10089,
   "week": 10090,
   "pi": 10091,
   "rock": 10092,
   "##のは": 10093,
   "##ａ": 10094,
   "##けと": 10095,
   "##ean": 10096,
   "##300": 10097,
   "##gle": 10098,
   "cctv": 10099,
   "after": 10100,
   "chinese": 10101,
   "##back": 10102,
   "powered": 10103,
   "x2": 10104,
   "##tan": 10105,
   "1918": 10106,
   "##nes": 10107,
   "##イン": 10108,
   "canon": 10109,
   "only": 10110,
   "181": 10111,
   "##zi": 10112,
   "##las": 10113,
   "say": 10114,
   "##oe": 10115,
   "184": 10116,
   "##sd": 10117,
   "221": 10118,
   "##bot": 10119,
   "##world": 10120,
   "##zo": 10121,
   "sky": 10122,
   "made": 10123,
   "top100": 10124,
   "just": 10125,
   "1926": 10126,
   "pmi": 10127,
   "802": 10128,
   "234": 10129,
   "gap": 10130,
   "##vr": 10131,
   "177": 10132,
   "les": 10133,
   "174": 10134,
   "▲topoct": 10135,
   "ball": 10136,
   "vogue": 10137,
   "vi": 10138,
   "ing": 10139,
   "ofweek": 10140,
   "cos": 10141,
   "##list": 10142,
   "##ort": 10143,
   "▲topmay": 10144,
   "##なら": 10145,
   "##lon": 10146,
   "として": 10147,
   "last": 10148,
   "##tc": 10149,
   "##of": 10150,
   "##bus": 10151,
   "##gen": 10152,
   "real": 10153,
   "eva": 10154,
   "##コ": 10155,
   "a3": 10156,
   "nas": 10157,
   "##lie": 10158,
   "##ria": 10159,
   "##coin": 10160,
   "##bt": 10161,
   "▲topapr": 10162,
   "his": 10163,
   "212": 10164,
   "cat": 10165,
   "nata": 10166,
   "vive": 10167,
   "health": 10168,
   "⋯⋯": 10169,
   "drive": 10170,
   "sir": 10171,
   "▲topmar": 10172,
   "du": 10173,
   "cup": 10174,
   "##カー": 10175,
   "##ook": 10176,
   "##よう": 10177,
   "##sy": 10178,
   "alex": 10179,
   "msg": 10180,
   "tour": 10181,
   "しました": 10182,
   "3ce": 10183,
   "##word": 10184,
   "193": 10185,
   "ebooks": 10186,
   "r8": 10187,
   "block": 10188,
   "318": 10189,
   "##より": 10190,
   "2200": 10191,
   "nice": 10192,
   "pvp": 10193,
   "207": 10194,
   "months": 10195,
   "1905": 10196,
   "rewards": 10197,
   "##ther": 10198,
   "1917": 10199,
   "0800": 10200,
   "##xi": 10201,
   "##チ": 10202,
   "##sc": 10203,
   "micro": 10204,
   "850": 10205,
   "gg": 10206,
   "blogfp": 10207,
   "op": 10208,
   "1922": 10209,
   "daily": 10210,
   "m1": 10211,
   "264": 10212,
   "true": 10213,
   "##bb": 10214,
   "ml": 10215,
   "##tar": 10216,
   "##のお": 10217,
   "##ky": 10218,
   "anthony": 10219,
   "196": 10220,
   "253": 10221,
   "##yo": 10222,
   "state": 10223,
   "218": 10224,
   "##ara": 10225,
   "##aa": 10226,
   "##rc": 10227,
   "##tz": 10228,
   "##ston": 10229,
   "より": 10230,
   "gear": 10231,
   "##eo": 10232,
   "##ade": 10233,
   "ge": 10234,
   "see": 10235,
   "1923": 10236,
   "##win": 10237,
   "##ura": 10238,
   "ss": 10239,
   "heart": 10240,
   "##den": 10241,
   "##ita": 10242,
   "down": 10243,
   "##sm": 10244,
   "el": 10245,
   "png": 10246,
   "2100": 10247,
   "610": 10248,
   "rakuten": 10249,
   "whatsapp": 10250,
   "bay": 10251,
   "dream": 10252,
   "add": 10253,
   "##use": 10254,
   "680": 10255,
   "311": 10256,
   "pad": 10257,
   "gucci": 10258,
   "mpv": 10259,
   "##ode": 10260,
   "##fo": 10261,
   "island": 10262,
   "▲topjun": 10263,
   "##▼": 10264,
   "223": 10265,
   "jason": 10266,
   "214": 10267,
   "chicago": 10268,
   "##❤": 10269,
   "しの": 10270,
   "##hone": 10271,
   "io": 10272,
   "##れる": 10273,
   "##ことか": 10274,
   "sogo": 10275,
   "be2": 10276,
   "##ology": 10277,
   "990": 10278,
   "cloud": 10279,
   "vcd": 10280,
   "##con": 10281,
   "2～3": 10282,
   "##ford": 10283,
   "##joy": 10284,
   "##kb": 10285,
   "##こさいます": 10286,
   "##rade": 10287,
   "but": 10288,
   "##ach": 10289,
   "docker": 10290,
   "##ful": 10291,
   "rfid": 10292,
   "ul": 10293,
   "##ase": 10294,
   "hit": 10295,
   "ford": 10296,
   "##star": 10297,
   "580": 10298,
   "##○": 10299,
   "１１": 10300,
   "a2": 10301,
   "sdk": 10302,
   "reading": 10303,
   "edited": 10304,
   "##are": 10305,
   "cmos": 10306,
   "##mc": 10307,
   "238": 10308,
   "siri": 10309,
   "light": 10310,
   "##ella": 10311,
   "##ため": 10312,
   "bloomberg": 10313,
   "##read": 10314,
   "pizza": 10315,
   "##ison": 10316,
   "jimmy": 10317,
   "##vm": 10318,
   "college": 10319,
   "node": 10320,
   "journal": 10321,
   "ba": 10322,
   "18k": 10323,
   "##play": 10324,
   "245": 10325,
   "##cer": 10326,
   "２０": 10327,
   "magic": 10328,
   "##yu": 10329,
   "191": 10330,
   "jump": 10331,
   "288": 10332,
   "tt": 10333,
   "##ings": 10334,
   "asr": 10335,
   "##lia": 10336,
   "3200": 10337,
   "step5": 10338,
   "network": 10339,
   "##cd": 10340,
   "mc": 10341,
   "いします": 10342,
   "1234": 10343,
   "pixstyleme": 10344,
   "273": 10345,
   "##600": 10346,
   "2800": 10347,
   "money": 10348,
   "★★★★★": 10349,
   "1280": 10350,
   "１２": 10351,
   "430": 10352,
   "bl": 10353,
   "みの": 10354,
   "act": 10355,
   "##tus": 10356,
   "tokyo": 10357,
   "##rial": 10358,
   "##life": 10359,
   "emba": 10360,
   "##ae": 10361,
   "saas": 10362,
   "tcs": 10363,
   "##rk": 10364,
   "##wang": 10365,
   "summer": 10366,
   "##sp": 10367,
   "ko": 10368,
   "##ving": 10369,
   "390": 10370,
   "premium": 10371,
   "##その": 10372,
   "netflix": 10373,
   "##ヒ": 10374,
   "uk": 10375,
   "mt": 10376,
   "##lton": 10377,
   "right": 10378,
   "frank": 10379,
   "two": 10380,
   "209": 10381,
   "える": 10382,
   "##ple": 10383,
   "##cal": 10384,
   "021": 10385,
   "##んな": 10386,
   "##sen": 10387,
   "##ville": 10388,
   "hold": 10389,
   "nexus": 10390,
   "dd": 10391,
   "##ius": 10392,
   "てお": 10393,
   "##mah": 10394,
   "##なく": 10395,
   "tila": 10396,
   "zero": 10397,
   "820": 10398,
   "ce": 10399,
   "##tin": 10400,
   "resort": 10401,
   "##ws": 10402,
   "charles": 10403,
   "old": 10404,
   "p10": 10405,
   "5d": 10406,
   "report": 10407,
   "##360": 10408,
   "##ru": 10409,
   "##には": 10410,
   "bus": 10411,
   "vans": 10412,
   "lt": 10413,
   "##est": 10414,
   "pv": 10415,
   "##レ": 10416,
   "links": 10417,
   "rebecca": 10418,
   "##ツ": 10419,
   "##dm": 10420,
   "azure": 10421,
   "##365": 10422,
   "きな": 10423,
   "limited": 10424,
   "bit": 10425,
   "4gb": 10426,
   "##mon": 10427,
   "1910": 10428,
   "moto": 10429,
   "##eam": 10430,
   "213": 10431,
   "1913": 10432,
   "var": 10433,
   "eos": 10434,
   "なとの": 10435,
   "226": 10436,
   "blogspot": 10437,
   "された": 10438,
   "699": 10439,
   "e3": 10440,
   "dos": 10441,
   "dm": 10442,
   "fc": 10443,
   "##ments": 10444,
   "##ik": 10445,
   "##kw": 10446,
   "boy": 10447,
   "##bin": 10448,
   "##ata": 10449,
   "960": 10450,
   "er": 10451,
   "##せ": 10452,
   "219": 10453,
   "##vin": 10454,
   "##tu": 10455,
   "##ula": 10456,
   "194": 10457,
   "##∥": 10458,
   "station": 10459,
   "##ろ": 10460,
   "##ature": 10461,
   "835": 10462,
   "files": 10463,
   "zara": 10464,
   "hdr": 10465,
   "top10": 10466,
   "nature": 10467,
   "950": 10468,
   "magazine": 10469,
   "s6": 10470,
   "marriott": 10471,
   "##シ": 10472,
   "avira": 10473,
   "case": 10474,
   "##っと": 10475,
   "tab": 10476,
   "##ran": 10477,
   "tony": 10478,
   "##home": 10479,
   "oculus": 10480,
   "im": 10481,
   "##ral": 10482,
   "jean": 10483,
   "saint": 10484,
   "cry": 10485,
   "307": 10486,
   "rosie": 10487,
   "##force": 10488,
   "##ini": 10489,
   "ice": 10490,
   "##bert": 10491,
   "のある": 10492,
   "##nder": 10493,
   "##mber": 10494,
   "pet": 10495,
   "2600": 10496,
   "##◆": 10497,
   "plurk": 10498,
   "▲topdec": 10499,
   "##sis": 10500,
   "00kg": 10501,
   "▲topnov": 10502,
   "720": 10503,
   "##ence": 10504,
   "tim": 10505,
   "##ω": 10506,
   "##nc": 10507,
   "##ても": 10508,
   "##name": 10509,
   "log": 10510,
   "ips": 10511,
   "great": 10512,
   "ikea": 10513,
   "malaysia": 10514,
   "unix": 10515,
   "##イト": 10516,
   "3600": 10517,
   "##ncy": 10518,
   "##nie": 10519,
   "12000": 10520,
   "akb48": 10521,
   "##ye": 10522,
   "##oid": 10523,
   "404": 10524,
   "##chi": 10525,
   "##いた": 10526,
   "oa": 10527,
   "xuehai": 10528,
   "##1000": 10529,
   "##orm": 10530,
   "##rf": 10531,
   "275": 10532,
   "さん": 10533,
   "##ware": 10534,
   "##リー": 10535,
   "980": 10536,
   "ho": 10537,
   "##pro": 10538,
   "text": 10539,
   "##era": 10540,
   "560": 10541,
   "bob": 10542,
   "227": 10543,
   "##ub": 10544,
   "##2008": 10545,
   "8891": 10546,
   "scp": 10547,
   "avi": 10548,
   "##zen": 10549,
   "2022": 10550,
   "mi": 10551,
   "wu": 10552,
   "museum": 10553,
   "qvod": 10554,
   "apache": 10555,
   "lake": 10556,
   "jcb": 10557,
   "▲topaug": 10558,
   "★★★": 10559,
   "ni": 10560,
   "##hr": 10561,
   "hill": 10562,
   "302": 10563,
   "ne": 10564,
   "weibo": 10565,
   "490": 10566,
   "ruby": 10567,
   "##ーシ": 10568,
   "##ヶ": 10569,
   "##row": 10570,
   "4d": 10571,
   "▲topjul": 10572,
   "iv": 10573,
   "##ish": 10574,
   "github": 10575,
   "306": 10576,
   "mate": 10577,
   "312": 10578,
   "##スト": 10579,
   "##lot": 10580,
   "##ane": 10581,
   "andrew": 10582,
   "のハイト": 10583,
   "##tina": 10584,
   "t1": 10585,
   "rf": 10586,
   "ed2k": 10587,
   "##vel": 10588,
   "##900": 10589,
   "way": 10590,
   "final": 10591,
   "りの": 10592,
   "ns": 10593,
   "5a": 10594,
   "705": 10595,
   "197": 10596,
   "##メ": 10597,
   "sweet": 10598,
   "bytes": 10599,
   "##ene": 10600,
   "▲topjan": 10601,
   "231": 10602,
   "##cker": 10603,
   "##2007": 10604,
   "##px": 10605,
   "100g": 10606,
   "topapp": 10607,
   "229": 10608,
   "helpapp": 10609,
   "rs": 10610,
   "low": 10611,
   "14k": 10612,
   "g4g": 10613,
   "care": 10614,
   "630": 10615,
   "ldquo": 10616,
   "あり": 10617,
   "##fork": 10618,
   "leave": 10619,
   "rm": 10620,
   "edition": 10621,
   "##gan": 10622,
   "##zon": 10623,
   "##qq": 10624,
   "▲topsep": 10625,
   "##google": 10626,
   "##ism": 10627,
   "gold": 10628,
   "224": 10629,
   "explorer": 10630,
   "##zer": 10631,
   "toyota": 10632,
   "category": 10633,
   "select": 10634,
   "visual": 10635,
   "##labels": 10636,
   "restaurant": 10637,
   "##md": 10638,
   "posts": 10639,
   "s1": 10640,
   "##ico": 10641,
   "もっと": 10642,
   "angelababy": 10643,
   "123456": 10644,
   "217": 10645,
   "sports": 10646,
   "s3": 10647,
   "mbc": 10648,
   "1915": 10649,
   "してくたさい": 10650,
   "shell": 10651,
   "x86": 10652,
   "candy": 10653,
   "##new": 10654,
   "kbs": 10655,
   "face": 10656,
   "xl": 10657,
   "470": 10658,
   "##here": 10659,
   "4a": 10660,
   "swissinfo": 10661,
   "v8": 10662,
   "▲topfeb": 10663,
   "dram": 10664,
   "##ual": 10665,
   "##vice": 10666,
   "3a": 10667,
   "##wer": 10668,
   "sport": 10669,
   "q1": 10670,
   "ios10": 10671,
   "public": 10672,
   "int": 10673,
   "card": 10674,
   "##ｃ": 10675,
   "ep": 10676,
   "au": 10677,
   "rt": 10678,
   "##れた": 10679,
   "1080": 10680,
   "bill": 10681,
   "##mll": 10682,
   "kim": 10683,
   "３０": 10684,
   "460": 10685,
   "wan": 10686,
   "##uk": 10687,
   "##ミ": 10688,
   "x3": 10689,
   "298": 10690,
   "0t": 10691,
   "scott": 10692,
   "##ming": 10693,
   "239": 10694,
   "e5": 10695,
   "##3d": 10696,
   "h7n9": 10697,
   "worldcat": 10698,
   "brown": 10699,
   "##あります": 10700,
   "##vo": 10701,
   "##led": 10702,
   "##580": 10703,
   "##ax": 10704,
   "249": 10705,
   "410": 10706,
   "##ert": 10707,
   "paris": 10708,
   "##～6": 10709,
   "polo": 10710,
   "925": 10711,
   "##lr": 10712,
   "599": 10713,
   "##ナ": 10714,
   "capital": 10715,
   "##hing": 10716,
   "bank": 10717,
   "cv": 10718,
   "1g": 10719,
   "##chat": 10720,
   "##ｓ": 10721,
   "##たい": 10722,
   "adc": 10723,
   "##ule": 10724,
   "2m": 10725,
   "##ｅ": 10726,
   "digital": 10727,
   "hotmail": 10728,
   "268": 10729,
   "##pad": 10730,
   "870": 10731,
   "bbq": 10732,
   "quot": 10733,
   "##ring": 10734,
   "before": 10735,
   "wali": 10736,
   "##まて": 10737,
   "mcu": 10738,
   "2k": 10739,
   "2b": 10740,
   "という": 10741,
   "costco": 10742,
   "316": 10743,
   "north": 10744,
   "333": 10745,
   "switch": 10746,
   "##city": 10747,
   "##ｐ": 10748,
   "philips": 10749,
   "##mann": 10750,
   "management": 10751,
   "panasonic": 10752,
   "##cl": 10753,
   "##vd": 10754,
   "##ping": 10755,
   "##rge": 10756,
   "alice": 10757,
   "##lk": 10758,
   "##ましょう": 10759,
   "css3": 10760,
   "##ney": 10761,
   "vision": 10762,
   "alpha": 10763,
   "##ular": 10764,
   "##400": 10765,
   "##tter": 10766,
   "lz": 10767,
   "にお": 10768,
   "##ありません": 10769,
   "mode": 10770,
   "gre": 10771,
   "1916": 10772,
   "pci": 10773,
   "##tm": 10774,
   "237": 10775,
   "1～2": 10776,
   "##yan": 10777,
   "##そ": 10778,
   "について": 10779,
   "##let": 10780,
   "##キ": 10781,
   "work": 10782,
   "war": 10783,
   "coach": 10784,
   "ah": 10785,
   "mary": 10786,
   "##ᅵ": 10787,
   "huang": 10788,
   "##pt": 10789,
   "a8": 10790,
   "pt": 10791,
   "follow": 10792,
   "##berry": 10793,
   "1895": 10794,
   "##ew": 10795,
   "a5": 10796,
   "ghost": 10797,
   "##ション": 10798,
   "##wn": 10799,
   "##og": 10800,
   "south": 10801,
   "##code": 10802,
   "girls": 10803,
   "##rid": 10804,
   "action": 10805,
   "villa": 10806,
   "git": 10807,
   "r11": 10808,
   "table": 10809,
   "games": 10810,
   "##cket": 10811,
   "error": 10812,
   "##anonymoussaid": 10813,
   "##ag": 10814,
   "here": 10815,
   "##ame": 10816,
   "##gc": 10817,
   "qa": 10818,
   "##■": 10819,
   "##lis": 10820,
   "gmp": 10821,
   "##gin": 10822,
   "vmalife": 10823,
   "##cher": 10824,
   "yu": 10825,
   "wedding": 10826,
   "##tis": 10827,
   "demo": 10828,
   "dragon": 10829,
   "530": 10830,
   "soho": 10831,
   "social": 10832,
   "bye": 10833,
   "##rant": 10834,
   "river": 10835,
   "orz": 10836,
   "acer": 10837,
   "325": 10838,
   "##↑": 10839,
   "##ース": 10840,
   "##ats": 10841,
   "261": 10842,
   "del": 10843,
   "##ven": 10844,
   "440": 10845,
   "ups": 10846,
   "##ように": 10847,
   "##ター": 10848,
   "305": 10849,
   "value": 10850,
   "macd": 10851,
   "yougou": 10852,
   "##dn": 10853,
   "661": 10854,
   "##ano": 10855,
   "ll": 10856,
   "##urt": 10857,
   "##rent": 10858,
   "continue": 10859,
   "script": 10860,
   "##wen": 10861,
   "##ect": 10862,
   "paper": 10863,
   "263": 10864,
   "319": 10865,
   "shift": 10866,
   "##chel": 10867,
   "##フト": 10868,
   "##cat": 10869,
   "258": 10870,
   "x5": 10871,
   "fox": 10872,
   "243": 10873,
   "##さん": 10874,
   "car": 10875,
   "aaa": 10876,
   "##blog": 10877,
   "loading": 10878,
   "##yn": 10879,
   "##tp": 10880,
   "kuso": 10881,
   "799": 10882,
   "si": 10883,
   "sns": 10884,
   "イカせるテンマ": 10885,
   "ヒンクテンマ3": 10886,
   "rmb": 10887,
   "vdc": 10888,
   "forest": 10889,
   "central": 10890,
   "prime": 10891,
   "help": 10892,
   "ultra": 10893,
   "##rmb": 10894,
   "##ような": 10895,
   "241": 10896,
   "square": 10897,
   "688": 10898,
   "##しい": 10899,
   "のないフロクに": 10900,
   "##field": 10901,
   "##reen": 10902,
   "##ors": 10903,
   "##ju": 10904,
   "c1": 10905,
   "start": 10906,
   "510": 10907,
   "##air": 10908,
   "##map": 10909,
   "cdn": 10910,
   "##wo": 10911,
   "cba": 10912,
   "stephen": 10913,
   "m8": 10914,
   "100km": 10915,
   "##get": 10916,
   "opera": 10917,
   "##base": 10918,
   "##ood": 10919,
   "vsa": 10920,
   "com™": 10921,
   "##aw": 10922,
   "##ail": 10923,
   "251": 10924,
   "なのて": 10925,
   "count": 10926,
   "t2": 10927,
   "##ᅡ": 10928,
   "##een": 10929,
   "2700": 10930,
   "hop": 10931,
   "##gp": 10932,
   "vsc": 10933,
   "tree": 10934,
   "##eg": 10935,
   "##ose": 10936,
   "816": 10937,
   "285": 10938,
   "##ories": 10939,
   "##shop": 10940,
   "alphago": 10941,
   "v4": 10942,
   "1909": 10943,
   "simon": 10944,
   "##ᆼ": 10945,
   "fluke62max": 10946,
   "zip": 10947,
   "スホンサー": 10948,
   "##sta": 10949,
   "louis": 10950,
   "cr": 10951,
   "bas": 10952,
   "##～10": 10953,
   "bc": 10954,
   "##yer": 10955,
   "hadoop": 10956,
   "##ube": 10957,
   "##wi": 10958,
   "1906": 10959,
   "0755": 10960,
   "hola": 10961,
   "##low": 10962,
   "place": 10963,
   "centre": 10964,
   "5v": 10965,
   "d3": 10966,
   "##fer": 10967,
   "252": 10968,
   "##750": 10969,
   "##media": 10970,
   "281": 10971,
   "540": 10972,
   "0l": 10973,
   "exchange": 10974,
   "262": 10975,
   "series": 10976,
   "##ハー": 10977,
   "##san": 10978,
   "eb": 10979,
   "##bank": 10980,
   "##ｋ": 10981,
   "q3": 10982,
   "##nge": 10983,
   "##mail": 10984,
   "take": 10985,
   "##lp": 10986,
   "259": 10987,
   "1888": 10988,
   "client": 10989,
   "east": 10990,
   "cache": 10991,
   "event": 10992,
   "vincent": 10993,
   "##ールを": 10994,
   "きを": 10995,
   "##nse": 10996,
   "sui": 10997,
   "855": 10998,
   "adchoice": 10999,
   "##и": 11000,
   "##stry": 11001,
   "##なたの": 11002,
   "246": 11003,
   "##zone": 11004,
   "ga": 11005,
   "apps": 11006,
   "sea": 11007,
   "##ab": 11008,
   "248": 11009,
   "cisco": 11010,
   "##タ": 11011,
   "##rner": 11012,
   "kymco": 11013,
   "##care": 11014,
   "dha": 11015,
   "##pu": 11016,
   "##yi": 11017,
   "minkoff": 11018,
   "royal": 11019,
   "p1": 11020,
   "への": 11021,
   "annie": 11022,
   "269": 11023,
   "collection": 11024,
   "kpi": 11025,
   "playstation": 11026,
   "257": 11027,
   "になります": 11028,
   "866": 11029,
   "bh": 11030,
   "##bar": 11031,
   "queen": 11032,
   "505": 11033,
   "radio": 11034,
   "1904": 11035,
   "andy": 11036,
   "armani": 11037,
   "##xy": 11038,
   "manager": 11039,
   "iherb": 11040,
   "##ery": 11041,
   "##share": 11042,
   "spring": 11043,
   "raid": 11044,
   "johnson": 11045,
   "1908": 11046,
   "##ob": 11047,
   "volvo": 11048,
   "hall": 11049,
   "##ball": 11050,
   "v6": 11051,
   "our": 11052,
   "taylor": 11053,
   "##hk": 11054,
   "bi": 11055,
   "242": 11056,
   "##cp": 11057,
   "kate": 11058,
   "bo": 11059,
   "water": 11060,
   "technology": 11061,
   "##rie": 11062,
   "サイトは": 11063,
   "277": 11064,
   "##ona": 11065,
   "##sl": 11066,
   "hpv": 11067,
   "303": 11068,
   "gtx": 11069,
   "hip": 11070,
   "rdquo": 11071,
   "jayz": 11072,
   "stone": 11073,
   "##lex": 11074,
   "##rum": 11075,
   "namespace": 11076,
   "##やり": 11077,
   "620": 11078,
   "##ale": 11079,
   "##atic": 11080,
   "des": 11081,
   "##erson": 11082,
   "##ql": 11083,
   "##ves": 11084,
   "##type": 11085,
   "enter": 11086,
   "##この": 11087,
   "##てきます": 11088,
   "d2": 11089,
   "##168": 11090,
   "##mix": 11091,
   "##bian": 11092,
   "との": 11093,
   "a9": 11094,
   "jj": 11095,
   "ky": 11096,
   "##lc": 11097,
   "access": 11098,
   "movie": 11099,
   "##hc": 11100,
   "リストに": 11101,
   "tower": 11102,
   "##ration": 11103,
   "##mit": 11104,
   "ます": 11105,
   "##nch": 11106,
   "ua": 11107,
   "tel": 11108,
   "prefix": 11109,
   "##o2": 11110,
   "1907": 11111,
   "##point": 11112,
   "1901": 11113,
   "ott": 11114,
   "～10": 11115,
   "##http": 11116,
   "##ury": 11117,
   "baidu": 11118,
   "##ink": 11119,
   "member": 11120,
   "##logy": 11121,
   "bigbang": 11122,
   "nownews": 11123,
   "##js": 11124,
   "##shot": 11125,
   "##tb": 11126,
   "##こと": 11127,
   "247": 11128,
   "eba": 11129,
   "##tics": 11130,
   "##lus": 11131,
   "ける": 11132,
   "v5": 11133,
   "spark": 11134,
   "##ama": 11135,
   "there": 11136,
   "##ions": 11137,
   "god": 11138,
   "##lls": 11139,
   "##down": 11140,
   "hiv": 11141,
   "##ress": 11142,
   "burberry": 11143,
   "day2": 11144,
   "##kv": 11145,
   "◆◆": 11146,
   "jeff": 11147,
   "related": 11148,
   "film": 11149,
   "edit": 11150,
   "joseph": 11151,
   "283": 11152,
   "##ark": 11153,
   "cx": 11154,
   "32gb": 11155,
   "order": 11156,
   "g9": 11157,
   "30000": 11158,
   "##ans": 11159,
   "##tty": 11160,
   "s5": 11161,
   "##bee": 11162,
   "かあります": 11163,
   "thread": 11164,
   "xr": 11165,
   "buy": 11166,
   "sh": 11167,
   "005": 11168,
   "land": 11169,
   "spotify": 11170,
   "mx": 11171,
   "##ari": 11172,
   "276": 11173,
   "##verse": 11174,
   "×email": 11175,
   "sf": 11176,
   "why": 11177,
   "##ことて": 11178,
   "244": 11179,
   "7headlines": 11180,
   "nego": 11181,
   "sunny": 11182,
   "dom": 11183,
   "exo": 11184,
   "401": 11185,
   "666": 11186,
   "positioning": 11187,
   "fit": 11188,
   "rgb": 11189,
   "##tton": 11190,
   "278": 11191,
   "kiss": 11192,
   "alexa": 11193,
   "adam": 11194,
   "lp": 11195,
   "みリストを": 11196,
   "##ｇ": 11197,
   "mp": 11198,
   "##ties": 11199,
   "##llow": 11200,
   "amy": 11201,
   "##du": 11202,
   "np": 11203,
   "002": 11204,
   "institute": 11205,
   "271": 11206,
   "##rth": 11207,
   "##lar": 11208,
   "2345": 11209,
   "590": 11210,
   "##des": 11211,
   "sidebar": 11212,
   "１５": 11213,
   "imax": 11214,
   "site": 11215,
   "##cky": 11216,
   "##kit": 11217,
   "##ime": 11218,
   "##009": 11219,
   "season": 11220,
   "323": 11221,
   "##fun": 11222,
   "##ンター": 11223,
   "##ひ": 11224,
   "gogoro": 11225,
   "a7": 11226,
   "pu": 11227,
   "lily": 11228,
   "fire": 11229,
   "twd600": 11230,
   "##ッセーシを": 11231,
   "いて": 11232,
   "##vis": 11233,
   "30ml": 11234,
   "##cture": 11235,
   "##をお": 11236,
   "information": 11237,
   "##オ": 11238,
   "close": 11239,
   "friday": 11240,
   "##くれる": 11241,
   "yi": 11242,
   "nick": 11243,
   "てすか": 11244,
   "##tta": 11245,
   "##tel": 11246,
   "6500": 11247,
   "##lock": 11248,
   "cbd": 11249,
   "economy": 11250,
   "254": 11251,
   "かお": 11252,
   "267": 11253,
   "tinker": 11254,
   "double": 11255,
   "375": 11256,
   "8gb": 11257,
   "voice": 11258,
   "##app": 11259,
   "oops": 11260,
   "channel": 11261,
   "today": 11262,
   "985": 11263,
   "##right": 11264,
   "raw": 11265,
   "xyz": 11266,
   "##＋": 11267,
   "jim": 11268,
   "edm": 11269,
   "##cent": 11270,
   "7500": 11271,
   "supreme": 11272,
   "814": 11273,
   "ds": 11274,
   "##its": 11275,
   "##asia": 11276,
   "dropbox": 11277,
   "##てすか": 11278,
   "##tti": 11279,
   "books": 11280,
   "272": 11281,
   "100ml": 11282,
   "##tle": 11283,
   "##ller": 11284,
   "##ken": 11285,
   "##more": 11286,
   "##boy": 11287,
   "sex": 11288,
   "309": 11289,
   "##dom": 11290,
   "t3": 11291,
   "##ider": 11292,
   "##なります": 11293,
   "##unch": 11294,
   "1903": 11295,
   "810": 11296,
   "feel": 11297,
   "5500": 11298,
   "##かった": 11299,
   "##put": 11300,
   "により": 11301,
   "s2": 11302,
   "mo": 11303,
   "##gh": 11304,
   "men": 11305,
   "ka": 11306,
   "amoled": 11307,
   "div": 11308,
   "##tr": 11309,
   "##n1": 11310,
   "port": 11311,
   "howard": 11312,
   "##tags": 11313,
   "ken": 11314,
   "dnf": 11315,
   "##nus": 11316,
   "adsense": 11317,
   "##а": 11318,
   "ide": 11319,
   "##へ": 11320,
   "buff": 11321,
   "thunder": 11322,
   "##town": 11323,
   "##ique": 11324,
   "has": 11325,
   "##body": 11326,
   "auto": 11327,
   "pin": 11328,
   "##erry": 11329,
   "tee": 11330,
   "てした": 11331,
   "295": 11332,
   "number": 11333,
   "##the": 11334,
   "##013": 11335,
   "object": 11336,
   "psp": 11337,
   "cool": 11338,
   "udnbkk": 11339,
   "16gb": 11340,
   "##mic": 11341,
   "miui": 11342,
   "##tro": 11343,
   "most": 11344,
   "r2": 11345,
   "##alk": 11346,
   "##nity": 11347,
   "1880": 11348,
   "±0": 11349,
   "##いました": 11350,
   "428": 11351,
   "s4": 11352,
   "law": 11353,
   "version": 11354,
   "##oa": 11355,
   "n1": 11356,
   "sgs": 11357,
   "docomo": 11358,
   "##tf": 11359,
   "##ack": 11360,
   "henry": 11361,
   "fc2": 11362,
   "##ded": 11363,
   "##sco": 11364,
   "##014": 11365,
   "##rite": 11366,
   "286": 11367,
   "0mm": 11368,
   "linkedin": 11369,
   "##ada": 11370,
   "##now": 11371,
   "wii": 11372,
   "##ndy": 11373,
   "ucbug": 11374,
   "##◎": 11375,
   "sputniknews": 11376,
   "legalminer": 11377,
   "##ika": 11378,
   "##xp": 11379,
   "2gb": 11380,
   "##bu": 11381,
   "q10": 11382,
   "oo": 11383,
   "b6": 11384,
   "come": 11385,
   "##rman": 11386,
   "cheese": 11387,
   "ming": 11388,
   "maker": 11389,
   "##gm": 11390,
   "nikon": 11391,
   "##fig": 11392,
   "ppi": 11393,
   "kelly": 11394,
   "##ります": 11395,
   "jchere": 11396,
   "てきます": 11397,
   "ted": 11398,
   "md": 11399,
   "003": 11400,
   "fgo": 11401,
   "tech": 11402,
   "##tto": 11403,
   "dan": 11404,
   "soc": 11405,
   "##gl": 11406,
   "##len": 11407,
   "hair": 11408,
   "earth": 11409,
   "640": 11410,
   "521": 11411,
   "img": 11412,
   "##pper": 11413,
   "##a1": 11414,
   "##てきる": 11415,
   "##ロク": 11416,
   "acca": 11417,
   "##ition": 11418,
   "##ference": 11419,
   "suite": 11420,
   "##ig": 11421,
   "outlook": 11422,
   "##mond": 11423,
   "##cation": 11424,
   "398": 11425,
   "##pr": 11426,
   "279": 11427,
   "101vip": 11428,
   "358": 11429,
   "##999": 11430,
   "282": 11431,
   "64gb": 11432,
   "3800": 11433,
   "345": 11434,
   "airport": 11435,
   "##over": 11436,
   "284": 11437,
   "##おり": 11438,
   "jones": 11439,
   "##ith": 11440,
   "lab": 11441,
   "##su": 11442,
   "##いるのて": 11443,
   "co2": 11444,
   "town": 11445,
   "piece": 11446,
   "##llo": 11447,
   "no1": 11448,
   "vmware": 11449,
   "24h": 11450,
   "##qi": 11451,
   "focus": 11452,
   "reader": 11453,
   "##admin": 11454,
   "##ora": 11455,
   "tb": 11456,
   "false": 11457,
   "##log": 11458,
   "1898": 11459,
   "know": 11460,
   "lan": 11461,
   "838": 11462,
   "##ces": 11463,
   "f4": 11464,
   "##ume": 11465,
   "motel": 11466,
   "stop": 11467,
   "##oper": 11468,
   "na": 11469,
   "flickr": 11470,
   "netcomponents": 11471,
   "##af": 11472,
   "##─": 11473,
   "pose": 11474,
   "williams": 11475,
   "local": 11476,
   "##ound": 11477,
   "##cg": 11478,
   "##site": 11479,
   "##iko": 11480,
   "いお": 11481,
   "274": 11482,
   "5m": 11483,
   "gsm": 11484,
   "con": 11485,
   "##ath": 11486,
   "1902": 11487,
   "friends": 11488,
   "##hip": 11489,
   "cell": 11490,
   "317": 11491,
   "##rey": 11492,
   "780": 11493,
   "cream": 11494,
   "##cks": 11495,
   "012": 11496,
   "##dp": 11497,
   "facebooktwitterpinterestgoogle": 11498,
   "sso": 11499,
   "324": 11500,
   "shtml": 11501,
   "song": 11502,
   "swiss": 11503,
   "##mw": 11504,
   "##キンク": 11505,
   "lumia": 11506,
   "xdd": 11507,
   "string": 11508,
   "tiffany": 11509,
   "522": 11510,
   "marc": 11511,
   "られた": 11512,
   "insee": 11513,
   "russell": 11514,
   "sc": 11515,
   "dell": 11516,
   "##ations": 11517,
   "ｏｋ": 11518,
   "camera": 11519,
   "289": 11520,
   "##vs": 11521,
   "##flow": 11522,
   "##late": 11523,
   "classic": 11524,
   "287": 11525,
   "##nter": 11526,
   "stay": 11527,
   "g1": 11528,
   "mtv": 11529,
   "512": 11530,
   "##ever": 11531,
   "##lab": 11532,
   "##nger": 11533,
   "qe": 11534,
   "sata": 11535,
   "ryan": 11536,
   "d1": 11537,
   "50ml": 11538,
   "cms": 11539,
   "##cing": 11540,
   "su": 11541,
   "292": 11542,
   "3300": 11543,
   "editor": 11544,
   "296": 11545,
   "##nap": 11546,
   "security": 11547,
   "sunday": 11548,
   "association": 11549,
   "##ens": 11550,
   "##700": 11551,
   "##bra": 11552,
   "acg": 11553,
   "##かり": 11554,
   "sofascore": 11555,
   "とは": 11556,
   "mkv": 11557,
   "##ign": 11558,
   "jonathan": 11559,
   "gary": 11560,
   "build": 11561,
   "labels": 11562,
   "##oto": 11563,
   "tesla": 11564,
   "moba": 11565,
   "qi": 11566,
   "gohappy": 11567,
   "general": 11568,
   "ajax": 11569,
   "1024": 11570,
   "##かる": 11571,
   "サイト": 11572,
   "society": 11573,
   "##test": 11574,
   "##urs": 11575,
   "wps": 11576,
   "fedora": 11577,
   "##ich": 11578,
   "mozilla": 11579,
   "328": 11580,
   "##480": 11581,
   "##dr": 11582,
   "usa": 11583,
   "urn": 11584,
   "##lina": 11585,
   "##ｒ": 11586,
   "grace": 11587,
   "##die": 11588,
   "##try": 11589,
   "##ader": 11590,
   "1250": 11591,
   "##なり": 11592,
   "elle": 11593,
   "570": 11594,
   "##chen": 11595,
   "##ᆯ": 11596,
   "price": 11597,
   "##ten": 11598,
   "uhz": 11599,
   "##ough": 11600,
   "eq": 11601,
   "##hen": 11602,
   "states": 11603,
   "push": 11604,
   "session": 11605,
   "balance": 11606,
   "wow": 11607,
   "506": 11608,
   "##cus": 11609,
   "##py": 11610,
   "when": 11611,
   "##ward": 11612,
   "##ep": 11613,
   "34e": 11614,
   "wong": 11615,
   "library": 11616,
   "prada": 11617,
   "##サイト": 11618,
   "##cle": 11619,
   "running": 11620,
   "##ree": 11621,
   "313": 11622,
   "ck": 11623,
   "date": 11624,
   "q4": 11625,
   "##ctive": 11626,
   "##ool": 11627,
   "##＞": 11628,
   "mk": 11629,
   "##ira": 11630,
   "##163": 11631,
   "388": 11632,
   "die": 11633,
   "secret": 11634,
   "rq": 11635,
   "dota": 11636,
   "buffet": 11637,
   "は１ヶ": 11638,
   "e6": 11639,
   "##ez": 11640,
   "pan": 11641,
   "368": 11642,
   "ha": 11643,
   "##card": 11644,
   "##cha": 11645,
   "2a": 11646,
   "##さ": 11647,
   "alan": 11648,
   "day3": 11649,
   "eye": 11650,
   "f3": 11651,
   "##end": 11652,
   "france": 11653,
   "keep": 11654,
   "adi": 11655,
   "rna": 11656,
   "tvbs": 11657,
   "##ala": 11658,
   "solo": 11659,
   "nova": 11660,
   "##え": 11661,
   "##tail": 11662,
   "##ょう": 11663,
   "support": 11664,
   "##ries": 11665,
   "##なる": 11666,
   "##ved": 11667,
   "base": 11668,
   "copy": 11669,
   "iis": 11670,
   "fps": 11671,
   "##ways": 11672,
   "hero": 11673,
   "hgih": 11674,
   "profile": 11675,
   "fish": 11676,
   "mu": 11677,
   "ssh": 11678,
   "entertainment": 11679,
   "chang": 11680,
   "##wd": 11681,
   "click": 11682,
   "cake": 11683,
   "##ond": 11684,
   "pre": 11685,
   "##tom": 11686,
   "kic": 11687,
   "pixel": 11688,
   "##ov": 11689,
   "##fl": 11690,
   "product": 11691,
   "6a": 11692,
   "##pd": 11693,
   "dear": 11694,
   "##gate": 11695,
   "es": 11696,
   "yumi": 11697,
   "audio": 11698,
   "##²": 11699,
   "##sky": 11700,
   "echo": 11701,
   "bin": 11702,
   "where": 11703,
   "##ture": 11704,
   "329": 11705,
   "##ape": 11706,
   "find": 11707,
   "sap": 11708,
   "isis": 11709,
   "##なと": 11710,
   "nand": 11711,
   "##101": 11712,
   "##load": 11713,
   "##ream": 11714,
   "band": 11715,
   "a6": 11716,
   "525": 11717,
   "never": 11718,
   "##post": 11719,
   "festival": 11720,
   "50cm": 11721,
   "##we": 11722,
   "555": 11723,
   "guide": 11724,
   "314": 11725,
   "zenfone": 11726,
   "##ike": 11727,
   "335": 11728,
   "gd": 11729,
   "forum": 11730,
   "jessica": 11731,
   "strong": 11732,
   "alexander": 11733,
   "##ould": 11734,
   "software": 11735,
   "allen": 11736,
   "##ious": 11737,
   "program": 11738,
   "360°": 11739,
   "else": 11740,
   "lohasthree": 11741,
   "##gar": 11742,
   "することかてきます": 11743,
   "please": 11744,
   "##れます": 11745,
   "rc": 11746,
   "##ggle": 11747,
   "##ric": 11748,
   "bim": 11749,
   "50000": 11750,
   "##own": 11751,
   "eclipse": 11752,
   "355": 11753,
   "brian": 11754,
   "3ds": 11755,
   "##side": 11756,
   "061": 11757,
   "361": 11758,
   "##other": 11759,
   "##ける": 11760,
   "##tech": 11761,
   "##ator": 11762,
   "485": 11763,
   "engine": 11764,
   "##ged": 11765,
   "##ｔ": 11766,
   "plaza": 11767,
   "##fit": 11768,
   "cia": 11769,
   "ngo": 11770,
   "westbrook": 11771,
   "shi": 11772,
   "tbs": 11773,
   "50mm": 11774,
   "##みませんか": 11775,
   "sci": 11776,
   "291": 11777,
   "reuters": 11778,
   "##ily": 11779,
   "contextlink": 11780,
   "##hn": 11781,
   "af": 11782,
   "##cil": 11783,
   "bridge": 11784,
   "very": 11785,
   "##cel": 11786,
   "1890": 11787,
   "cambridge": 11788,
   "##ize": 11789,
   "15g": 11790,
   "##aid": 11791,
   "##data": 11792,
   "790": 11793,
   "frm": 11794,
   "##head": 11795,
   "award": 11796,
   "butler": 11797,
   "##sun": 11798,
   "meta": 11799,
   "##mar": 11800,
   "america": 11801,
   "ps3": 11802,
   "puma": 11803,
   "pmid": 11804,
   "##すか": 11805,
   "lc": 11806,
   "670": 11807,
   "kitchen": 11808,
   "##lic": 11809,
   "オーフン5": 11810,
   "きなしソフトサーヒス": 11811,
   "そして": 11812,
   "day1": 11813,
   "future": 11814,
   "★★★★": 11815,
   "##text": 11816,
   "##page": 11817,
   "##rris": 11818,
   "pm1": 11819,
   "##ket": 11820,
   "fans": 11821,
   "##っています": 11822,
   "1001": 11823,
   "christian": 11824,
   "bot": 11825,
   "kids": 11826,
   "trackback": 11827,
   "##hai": 11828,
   "c3": 11829,
   "display": 11830,
   "##hl": 11831,
   "n2": 11832,
   "1896": 11833,
   "idea": 11834,
   "さんも": 11835,
   "##sent": 11836,
   "airmail": 11837,
   "##ug": 11838,
   "##men": 11839,
   "pwm": 11840,
   "けます": 11841,
   "028": 11842,
   "##lution": 11843,
   "369": 11844,
   "852": 11845,
   "awards": 11846,
   "schemas": 11847,
   "354": 11848,
   "asics": 11849,
   "wikipedia": 11850,
   "font": 11851,
   "##tional": 11852,
   "##vy": 11853,
   "c2": 11854,
   "293": 11855,
   "##れている": 11856,
   "##dget": 11857,
   "##ein": 11858,
   "っている": 11859,
   "contact": 11860,
   "pepper": 11861,
   "スキル": 11862,
   "339": 11863,
   "##～5": 11864,
   "294": 11865,
   "##uel": 11866,
   "##ument": 11867,
   "730": 11868,
   "##hang": 11869,
   "みてす": 11870,
   "q5": 11871,
   "##sue": 11872,
   "rain": 11873,
   "##ndi": 11874,
   "wei": 11875,
   "swatch": 11876,
   "##cept": 11877,
   "わせ": 11878,
   "331": 11879,
   "popular": 11880,
   "##ste": 11881,
   "##tag": 11882,
   "p2": 11883,
   "501": 11884,
   "trc": 11885,
   "1899": 11886,
   "##west": 11887,
   "##live": 11888,
   "justin": 11889,
   "honda": 11890,
   "ping": 11891,
   "messenger": 11892,
   "##rap": 11893,
   "v9": 11894,
   "543": 11895,
   "##とは": 11896,
   "unity": 11897,
   "appqq": 11898,
   "はすへて": 11899,
   "025": 11900,
   "leo": 11901,
   "##tone": 11902,
   "##テ": 11903,
   "##ass": 11904,
   "uniqlo": 11905,
   "##010": 11906,
   "502": 11907,
   "her": 11908,
   "jane": 11909,
   "memory": 11910,
   "moneydj": 11911,
   "##tical": 11912,
   "human": 11913,
   "12306": 11914,
   "していると": 11915,
   "##m2": 11916,
   "coc": 11917,
   "miacare": 11918,
   "##mn": 11919,
   "tmt": 11920,
   "##core": 11921,
   "vim": 11922,
   "kk": 11923,
   "##may": 11924,
   "fan": 11925,
   "target": 11926,
   "use": 11927,
   "too": 11928,
   "338": 11929,
   "435": 11930,
   "2050": 11931,
   "867": 11932,
   "737": 11933,
   "fast": 11934,
   "##2c": 11935,
   "services": 11936,
   "##ope": 11937,
   "omega": 11938,
   "energy": 11939,
   "##わ": 11940,
   "pinkoi": 11941,
   "1a": 11942,
   "##なから": 11943,
   "##rain": 11944,
   "jackson": 11945,
   "##ement": 11946,
   "##シャンルの": 11947,
   "374": 11948,
   "366": 11949,
   "そんな": 11950,
   "p9": 11951,
   "rd": 11952,
   "##ᆨ": 11953,
   "1111": 11954,
   "##tier": 11955,
   "##vic": 11956,
   "zone": 11957,
   "##│": 11958,
   "385": 11959,
   "690": 11960,
   "dl": 11961,
   "isofix": 11962,
   "cpa": 11963,
   "m4": 11964,
   "322": 11965,
   "kimi": 11966,
   "めて": 11967,
   "davis": 11968,
   "##lay": 11969,
   "lulu": 11970,
   "##uck": 11971,
   "050": 11972,
   "weeks": 11973,
   "qs": 11974,
   "##hop": 11975,
   "920": 11976,
   "##ｎ": 11977,
   "ae": 11978,
   "##ear": 11979,
   "～5": 11980,
   "eia": 11981,
   "405": 11982,
   "##fly": 11983,
   "korea": 11984,
   "jpeg": 11985,
   "boost": 11986,
   "##ship": 11987,
   "small": 11988,
   "##リア": 11989,
   "1860": 11990,
   "eur": 11991,
   "297": 11992,
   "425": 11993,
   "valley": 11994,
   "##iel": 11995,
   "simple": 11996,
   "##ude": 11997,
   "rn": 11998,
   "k2": 11999,
   "##ena": 12000,
   "されます": 12001,
   "non": 12002,
   "patrick": 12003,
   "しているから": 12004,
   "##ナー": 12005,
   "feed": 12006,
   "5757": 12007,
   "30g": 12008,
   "process": 12009,
   "well": 12010,
   "qqmei": 12011,
   "##thing": 12012,
   "they": 12013,
   "aws": 12014,
   "lu": 12015,
   "pink": 12016,
   "##ters": 12017,
   "##kin": 12018,
   "または": 12019,
   "board": 12020,
   "##vertisement": 12021,
   "wine": 12022,
   "##ien": 12023,
   "unicode": 12024,
   "##dge": 12025,
   "r1": 12026,
   "359": 12027,
   "##tant": 12028,
   "いを": 12029,
   "##twitter": 12030,
   "##3c": 12031,
   "cool1": 12032,
   "される": 12033,
   "##れて": 12034,
   "##ｌ": 12035,
   "isp": 12036,
   "##012": 12037,
   "standard": 12038,
   "45㎡2": 12039,
   "402": 12040,
   "##150": 12041,
   "matt": 12042,
   "##fu": 12043,
   "326": 12044,
   "##iner": 12045,
   "googlemsn": 12046,
   "pixnetfacebookyahoo": 12047,
   "##ラン": 12048,
   "x7": 12049,
   "886": 12050,
   "##uce": 12051,
   "メーカー": 12052,
   "sao": 12053,
   "##ev": 12054,
   "##きました": 12055,
   "##file": 12056,
   "9678": 12057,
   "403": 12058,
   "xddd": 12059,
   "shirt": 12060,
   "6l": 12061,
   "##rio": 12062,
   "##hat": 12063,
   "3mm": 12064,
   "givenchy": 12065,
   "ya": 12066,
   "bang": 12067,
   "##lio": 12068,
   "monday": 12069,
   "crystal": 12070,
   "ロクイン": 12071,
   "##abc": 12072,
   "336": 12073,
   "head": 12074,
   "890": 12075,
   "ubuntuforumwikilinuxpastechat": 12076,
   "##vc": 12077,
   "##～20": 12078,
   "##rity": 12079,
   "cnc": 12080,
   "7866": 12081,
   "ipv6": 12082,
   "null": 12083,
   "1897": 12084,
   "##ost": 12085,
   "yang": 12086,
   "imsean": 12087,
   "tiger": 12088,
   "##fet": 12089,
   "##ンス": 12090,
   "352": 12091,
   "##＝": 12092,
   "dji": 12093,
   "327": 12094,
   "ji": 12095,
   "maria": 12096,
   "##come": 12097,
   "##んて": 12098,
   "foundation": 12099,
   "3100": 12100,
   "##beth": 12101,
   "##なった": 12102,
   "1m": 12103,
   "601": 12104,
   "active": 12105,
   "##aft": 12106,
   "##don": 12107,
   "3p": 12108,
   "sr": 12109,
   "349": 12110,
   "emma": 12111,
   "##khz": 12112,
   "living": 12113,
   "415": 12114,
   "353": 12115,
   "1889": 12116,
   "341": 12117,
   "709": 12118,
   "457": 12119,
   "sas": 12120,
   "x6": 12121,
   "##face": 12122,
   "pptv": 12123,
   "x4": 12124,
   "##mate": 12125,
   "han": 12126,
   "sophie": 12127,
   "##jing": 12128,
   "337": 12129,
   "fifa": 12130,
   "##mand": 12131,
   "other": 12132,
   "sale": 12133,
   "inwedding": 12134,
   "##gn": 12135,
   "てきちゃいます": 12136,
   "##mmy": 12137,
   "##pmlast": 12138,
   "bad": 12139,
   "nana": 12140,
   "nbc": 12141,
   "してみてくたさいね": 12142,
   "なとはお": 12143,
   "##wu": 12144,
   "##かあります": 12145,
   "##あ": 12146,
   "note7": 12147,
   "single": 12148,
   "##340": 12149,
   "せからこ": 12150,
   "してくたさい♪この": 12151,
   "しにはとんとんワークケートを": 12152,
   "するとあなたにもっとマッチした": 12153,
   "ならワークケートへ": 12154,
   "もみつかっちゃうかも": 12155,
   "ワークケートの": 12156,
   "##bel": 12157,
   "window": 12158,
   "##dio": 12159,
   "##ht": 12160,
   "union": 12161,
   "age": 12162,
   "382": 12163,
   "１４": 12164,
   "##ivity": 12165,
   "##ｙ": 12166,
   "コメント": 12167,
   "domain": 12168,
   "neo": 12169,
   "##isa": 12170,
   "##lter": 12171,
   "5k": 12172,
   "f5": 12173,
   "steven": 12174,
   "##cts": 12175,
   "powerpoint": 12176,
   "tft": 12177,
   "self": 12178,
   "g2": 12179,
   "ft": 12180,
   "##テル": 12181,
   "zol": 12182,
   "##act": 12183,
   "mwc": 12184,
   "381": 12185,
   "343": 12186,
   "もう": 12187,
   "nbapop": 12188,
   "408": 12189,
   "てある": 12190,
   "eds": 12191,
   "ace": 12192,
   "##room": 12193,
   "previous": 12194,
   "author": 12195,
   "tomtom": 12196,
   "il": 12197,
   "##ets": 12198,
   "hu": 12199,
   "financial": 12200,
   "☆☆☆": 12201,
   "っています": 12202,
   "bp": 12203,
   "5t": 12204,
   "chi": 12205,
   "1gb": 12206,
   "##hg": 12207,
   "fairmont": 12208,
   "cross": 12209,
   "008": 12210,
   "gay": 12211,
   "h2": 12212,
   "function": 12213,
   "##けて": 12214,
   "356": 12215,
   "also": 12216,
   "1b": 12217,
   "625": 12218,
   "##ータ": 12219,
   "##raph": 12220,
   "1894": 12221,
   "3～5": 12222,
   "##ils": 12223,
   "i3": 12224,
   "334": 12225,
   "avenue": 12226,
   "##host": 12227,
   "による": 12228,
   "##bon": 12229,
   "##tsu": 12230,
   "message": 12231,
   "navigation": 12232,
   "50g": 12233,
   "fintech": 12234,
   "h6": 12235,
   "##ことを": 12236,
   "8cm": 12237,
   "##ject": 12238,
   "##vas": 12239,
   "##firm": 12240,
   "credit": 12241,
   "##wf": 12242,
   "xxxx": 12243,
   "form": 12244,
   "##nor": 12245,
   "##space": 12246,
   "huawei": 12247,
   "plan": 12248,
   "json": 12249,
   "sbl": 12250,
   "##dc": 12251,
   "machine": 12252,
   "921": 12253,
   "392": 12254,
   "wish": 12255,
   "##120": 12256,
   "##sol": 12257,
   "windows7": 12258,
   "edward": 12259,
   "##ために": 12260,
   "development": 12261,
   "washington": 12262,
   "##nsis": 12263,
   "lo": 12264,
   "818": 12265,
   "##sio": 12266,
   "##ym": 12267,
   "##bor": 12268,
   "planet": 12269,
   "##～8": 12270,
   "##wt": 12271,
   "ieee": 12272,
   "gpa": 12273,
   "##めて": 12274,
   "camp": 12275,
   "ann": 12276,
   "gm": 12277,
   "##tw": 12278,
   "##oka": 12279,
   "connect": 12280,
   "##rss": 12281,
   "##work": 12282,
   "##atus": 12283,
   "wall": 12284,
   "chicken": 12285,
   "soul": 12286,
   "2mm": 12287,
   "##times": 12288,
   "fa": 12289,
   "##ather": 12290,
   "##cord": 12291,
   "009": 12292,
   "##eep": 12293,
   "hitachi": 12294,
   "gui": 12295,
   "harry": 12296,
   "##pan": 12297,
   "e1": 12298,
   "disney": 12299,
   "##press": 12300,
   "##ーション": 12301,
   "wind": 12302,
   "386": 12303,
   "frigidaire": 12304,
   "##tl": 12305,
   "liu": 12306,
   "hsu": 12307,
   "332": 12308,
   "basic": 12309,
   "von": 12310,
   "ev": 12311,
   "いた": 12312,
   "てきる": 12313,
   "スホンサーサイト": 12314,
   "learning": 12315,
   "##ull": 12316,
   "expedia": 12317,
   "archives": 12318,
   "change": 12319,
   "##wei": 12320,
   "santa": 12321,
   "cut": 12322,
   "ins": 12323,
   "6gb": 12324,
   "turbo": 12325,
   "brand": 12326,
   "cf1": 12327,
   "508": 12328,
   "004": 12329,
   "return": 12330,
   "747": 12331,
   "##rip": 12332,
   "h1": 12333,
   "##nis": 12334,
   "##をこ": 12335,
   "128gb": 12336,
   "##にお": 12337,
   "3t": 12338,
   "application": 12339,
   "しており": 12340,
   "emc": 12341,
   "rx": 12342,
   "##oon": 12343,
   "384": 12344,
   "quick": 12345,
   "412": 12346,
   "15058": 12347,
   "wilson": 12348,
   "wing": 12349,
   "chapter": 12350,
   "##bug": 12351,
   "beyond": 12352,
   "##cms": 12353,
   "##dar": 12354,
   "##oh": 12355,
   "zoom": 12356,
   "e2": 12357,
   "trip": 12358,
   "sb": 12359,
   "##nba": 12360,
   "rcep": 12361,
   "342": 12362,
   "aspx": 12363,
   "ci": 12364,
   "080": 12365,
   "gc": 12366,
   "gnu": 12367,
   "める": 12368,
   "##count": 12369,
   "advanced": 12370,
   "dance": 12371,
   "dv": 12372,
   "##url": 12373,
   "##ging": 12374,
   "367": 12375,
   "8591": 12376,
   "am09": 12377,
   "shadow": 12378,
   "battle": 12379,
   "346": 12380,
   "##ｉ": 12381,
   "##cia": 12382,
   "##という": 12383,
   "emily": 12384,
   "##のてす": 12385,
   "##tation": 12386,
   "host": 12387,
   "ff": 12388,
   "techorz": 12389,
   "sars": 12390,
   "##mini": 12391,
   "##mporary": 12392,
   "##ering": 12393,
   "nc": 12394,
   "4200": 12395,
   "798": 12396,
   "##next": 12397,
   "cma": 12398,
   "##mbps": 12399,
   "##gas": 12400,
   "##ift": 12401,
   "##dot": 12402,
   "##ィ": 12403,
   "455": 12404,
   "##～17": 12405,
   "amana": 12406,
   "##りの": 12407,
   "426": 12408,
   "##ros": 12409,
   "ir": 12410,
   "00㎡1": 12411,
   "##eet": 12412,
   "##ible": 12413,
   "##↓": 12414,
   "710": 12415,
   "ˋ▽ˊ": 12416,
   "##aka": 12417,
   "dcs": 12418,
   "iq": 12419,
   "##ｖ": 12420,
   "l1": 12421,
   "##lor": 12422,
   "maggie": 12423,
   "##011": 12424,
   "##iu": 12425,
   "588": 12426,
   "##～1": 12427,
   "830": 12428,
   "##gt": 12429,
   "1tb": 12430,
   "articles": 12431,
   "create": 12432,
   "##burg": 12433,
   "##iki": 12434,
   "database": 12435,
   "fantasy": 12436,
   "##rex": 12437,
   "##cam": 12438,
   "dlc": 12439,
   "dean": 12440,
   "##you": 12441,
   "hard": 12442,
   "path": 12443,
   "gaming": 12444,
   "victoria": 12445,
   "maps": 12446,
   "cb": 12447,
   "##lee": 12448,
   "##itor": 12449,
   "overchicstoretvhome": 12450,
   "systems": 12451,
   "##xt": 12452,
   "416": 12453,
   "p3": 12454,
   "sarah": 12455,
   "760": 12456,
   "##nan": 12457,
   "407": 12458,
   "486": 12459,
   "x9": 12460,
   "install": 12461,
   "second": 12462,
   "626": 12463,
   "##ann": 12464,
   "##ph": 12465,
   "##rcle": 12466,
   "##nic": 12467,
   "860": 12468,
   "##nar": 12469,
   "ec": 12470,
   "##とう": 12471,
   "768": 12472,
   "metro": 12473,
   "chocolate": 12474,
   "##rian": 12475,
   "～4": 12476,
   "##table": 12477,
   "##しています": 12478,
   "skin": 12479,
   "##sn": 12480,
   "395": 12481,
   "mountain": 12482,
   "##0mm": 12483,
   "inparadise": 12484,
   "6m": 12485,
   "7x24": 12486,
   "ib": 12487,
   "4800": 12488,
   "##jia": 12489,
   "eeworld": 12490,
   "creative": 12491,
   "g5": 12492,
   "g3": 12493,
   "357": 12494,
   "parker": 12495,
   "ecfa": 12496,
   "village": 12497,
   "からの": 12498,
   "18000": 12499,
   "sylvia": 12500,
   "サーヒス": 12501,
   "hbl": 12502,
   "##ques": 12503,
   "##onsored": 12504,
   "##x2": 12505,
   "##きます": 12506,
   "##v4": 12507,
   "##tein": 12508,
   "ie6": 12509,
   "383": 12510,
   "##stack": 12511,
   "389": 12512,
   "ver": 12513,
   "##ads": 12514,
   "##baby": 12515,
   "sound": 12516,
   "bbe": 12517,
   "##110": 12518,
   "##lone": 12519,
   "##uid": 12520,
   "ads": 12521,
   "022": 12522,
   "gundam": 12523,
   "351": 12524,
   "thinkpad": 12525,
   "006": 12526,
   "scrum": 12527,
   "match": 12528,
   "##ave": 12529,
   "mems": 12530,
   "##470": 12531,
   "##oy": 12532,
   "##なりました": 12533,
   "##talk": 12534,
   "glass": 12535,
   "lamigo": 12536,
   "span": 12537,
   "##eme": 12538,
   "job": 12539,
   "##a5": 12540,
   "jay": 12541,
   "wade": 12542,
   "kde": 12543,
   "498": 12544,
   "##lace": 12545,
   "ocean": 12546,
   "tvg": 12547,
   "##covery": 12548,
   "##r3": 12549,
   "##ners": 12550,
   "##rea": 12551,
   "junior": 12552,
   "think": 12553,
   "##aine": 12554,
   "cover": 12555,
   "##ision": 12556,
   "##sia": 12557,
   "↓↓": 12558,
   "##bow": 12559,
   "msi": 12560,
   "413": 12561,
   "458": 12562,
   "406": 12563,
   "##love": 12564,
   "711": 12565,
   "801": 12566,
   "soft": 12567,
   "z2": 12568,
   "##pl": 12569,
   "456": 12570,
   "1840": 12571,
   "mobil": 12572,
   "mind": 12573,
   "##uy": 12574,
   "427": 12575,
   "nginx": 12576,
   "##oi": 12577,
   "めた": 12578,
   "##rr": 12579,
   "6221": 12580,
   "##mple": 12581,
   "##sson": 12582,
   "##ーシてす": 12583,
   "371": 12584,
   "##nts": 12585,
   "91tv": 12586,
   "comhd": 12587,
   "crv3000": 12588,
   "##uard": 12589,
   "1868": 12590,
   "397": 12591,
   "deep": 12592,
   "lost": 12593,
   "field": 12594,
   "gallery": 12595,
   "##bia": 12596,
   "rate": 12597,
   "spf": 12598,
   "redis": 12599,
   "traction": 12600,
   "930": 12601,
   "icloud": 12602,
   "011": 12603,
   "なら": 12604,
   "fe": 12605,
   "jose": 12606,
   "372": 12607,
   "##tory": 12608,
   "into": 12609,
   "sohu": 12610,
   "fx": 12611,
   "899": 12612,
   "379": 12613,
   "kicstart2": 12614,
   "##hia": 12615,
   "すく": 12616,
   "##～3": 12617,
   "##sit": 12618,
   "ra": 12619,
   "２４": 12620,
   "##walk": 12621,
   "##xure": 12622,
   "500g": 12623,
   "##pact": 12624,
   "pacific": 12625,
   "xa": 12626,
   "natural": 12627,
   "carlo": 12628,
   "##250": 12629,
   "##walker": 12630,
   "1850": 12631,
   "##can": 12632,
   "cto": 12633,
   "gigi": 12634,
   "516": 12635,
   "##サー": 12636,
   "pen": 12637,
   "##hoo": 12638,
   "ob": 12639,
   "matlab": 12640,
   "##ｂ": 12641,
   "##yy": 12642,
   "13913459": 12643,
   "##iti": 12644,
   "mango": 12645,
   "##bbs": 12646,
   "sense": 12647,
   "c5": 12648,
   "oxford": 12649,
   "##ニア": 12650,
   "walker": 12651,
   "jennifer": 12652,
   "##ola": 12653,
   "course": 12654,
   "##bre": 12655,
   "701": 12656,
   "##pus": 12657,
   "##rder": 12658,
   "lucky": 12659,
   "075": 12660,
   "##ぁ": 12661,
   "ivy": 12662,
   "なお": 12663,
   "##nia": 12664,
   "sotheby": 12665,
   "side": 12666,
   "##ugh": 12667,
   "joy": 12668,
   "##orage": 12669,
   "##ush": 12670,
   "##bat": 12671,
   "##dt": 12672,
   "364": 12673,
   "r9": 12674,
   "##2d": 12675,
   "##gio": 12676,
   "511": 12677,
   "country": 12678,
   "wear": 12679,
   "##lax": 12680,
   "##～7": 12681,
   "##moon": 12682,
   "393": 12683,
   "seven": 12684,
   "study": 12685,
   "411": 12686,
   "348": 12687,
   "lonzo": 12688,
   "8k": 12689,
   "##ェ": 12690,
   "evolution": 12691,
   "##イフ": 12692,
   "##kk": 12693,
   "gs": 12694,
   "kd": 12695,
   "##レス": 12696,
   "arduino": 12697,
   "344": 12698,
   "b12": 12699,
   "##lux": 12700,
   "arpg": 12701,
   "##rdon": 12702,
   "cook": 12703,
   "##x5": 12704,
   "dark": 12705,
   "five": 12706,
   "##als": 12707,
   "##ida": 12708,
   "とても": 12709,
   "sign": 12710,
   "362": 12711,
   "##ちの": 12712,
   "something": 12713,
   "20mm": 12714,
   "##nda": 12715,
   "387": 12716,
   "##posted": 12717,
   "fresh": 12718,
   "tf": 12719,
   "1870": 12720,
   "422": 12721,
   "cam": 12722,
   "##mine": 12723,
   "##skip": 12724,
   "##form": 12725,
   "##ssion": 12726,
   "education": 12727,
   "394": 12728,
   "##tee": 12729,
   "dyson": 12730,
   "stage": 12731,
   "##jie": 12732,
   "want": 12733,
   "##night": 12734,
   "epson": 12735,
   "pack": 12736,
   "あります": 12737,
   "##ppy": 12738,
   "テリヘル": 12739,
   "##█": 12740,
   "wd": 12741,
   "##eh": 12742,
   "##rence": 12743,
   "left": 12744,
   "##lvin": 12745,
   "golden": 12746,
   "mhz": 12747,
   "discovery": 12748,
   "##trix": 12749,
   "##n2": 12750,
   "loft": 12751,
   "##uch": 12752,
   "##dra": 12753,
   "##sse": 12754,
   "speed": 12755,
   "～1": 12756,
   "1mdb": 12757,
   "sorry": 12758,
   "welcome": 12759,
   "##urn": 12760,
   "wave": 12761,
   "gaga": 12762,
   "##lmer": 12763,
   "teddy": 12764,
   "##160": 12765,
   "トラックハック": 12766,
   "せよ": 12767,
   "611": 12768,
   "##f2016": 12769,
   "378": 12770,
   "rp": 12771,
   "##sha": 12772,
   "rar": 12773,
   "##あなたに": 12774,
   "##きた": 12775,
   "840": 12776,
   "holiday": 12777,
   "##ュー": 12778,
   "373": 12779,
   "074": 12780,
   "##vg": 12781,
   "##nos": 12782,
   "##rail": 12783,
   "gartner": 12784,
   "gi": 12785,
   "6p": 12786,
   "##dium": 12787,
   "kit": 12788,
   "488": 12789,
   "b3": 12790,
   "eco": 12791,
   "##ろう": 12792,
   "20g": 12793,
   "sean": 12794,
   "##stone": 12795,
   "autocad": 12796,
   "nu": 12797,
   "##np": 12798,
   "f16": 12799,
   "write": 12800,
   "029": 12801,
   "m5": 12802,
   "##ias": 12803,
   "images": 12804,
   "atp": 12805,
   "##dk": 12806,
   "fsm": 12807,
   "504": 12808,
   "1350": 12809,
   "ve": 12810,
   "52kb": 12811,
   "##xxx": 12812,
   "##のに": 12813,
   "##cake": 12814,
   "414": 12815,
   "unit": 12816,
   "lim": 12817,
   "ru": 12818,
   "1v": 12819,
   "##ification": 12820,
   "published": 12821,
   "angela": 12822,
   "16g": 12823,
   "analytics": 12824,
   "ak": 12825,
   "##ｑ": 12826,
   "##nel": 12827,
   "gmt": 12828,
   "##icon": 12829,
   "again": 12830,
   "##₂": 12831,
   "##bby": 12832,
   "ios11": 12833,
   "445": 12834,
   "かこさいます": 12835,
   "waze": 12836,
   "いてす": 12837,
   "##ハ": 12838,
   "9985": 12839,
   "##ust": 12840,
   "##ティー": 12841,
   "framework": 12842,
   "##007": 12843,
   "iptv": 12844,
   "delete": 12845,
   "52sykb": 12846,
   "cl": 12847,
   "wwdc": 12848,
[...]
